{
  "version": "1.0",
  "truncation": null,
  "padding": null,
  "added_tokens": [
    {
      "id": 0,
      "content": "[UNK]",
      "single_word": false,
      "lstrip": false,
      "rstrip": false,
      "normalized": false,
      "special": true
    },
    {
      "id": 1,
      "content": "[PAD]",
      "single_word": false,
      "lstrip": false,
      "rstrip": false,
      "normalized": false,
      "special": true
    },
    {
      "id": 2,
      "content": "[BOS]",
      "single_word": false,
      "lstrip": false,
      "rstrip": false,
      "normalized": false,
      "special": true
    },
    {
      "id": 3,
      "content": "[EOS]",
      "single_word": false,
      "lstrip": false,
      "rstrip": false,
      "normalized": false,
      "special": true
    }
  ],
  "normalizer": null,
  "pre_tokenizer": {
    "type": "ByteLevel",
    "add_prefix_space": true,
    "trim_offsets": true,
    "use_regex": true
  },
  "post_processor": null,
  "decoder": null,
  "model": {
    "type": "BPE",
    "dropout": null,
    "unk_token": "[UNK]",
    "continuing_subword_prefix": null,
    "end_of_word_suffix": null,
    "fuse_unk": false,
    "byte_fallback": false,
    "ignore_merges": false,
    "vocab": {
      "[UNK]": 0,
      "[PAD]": 1,
      "[BOS]": 2,
      "[EOS]": 3,
      "!": 4,
      "\"": 5,
      "#": 6,
      "$": 7,
      "%": 8,
      "&": 9,
      "'": 10,
      "(": 11,
      ")": 12,
      "*": 13,
      "+": 14,
      ",": 15,
      "-": 16,
      ".": 17,
      "/": 18,
      "0": 19,
      "1": 20,
      "2": 21,
      "3": 22,
      "4": 23,
      "5": 24,
      "6": 25,
      "7": 26,
      "8": 27,
      "9": 28,
      ":": 29,
      ";": 30,
      "<": 31,
      "=": 32,
      ">": 33,
      "?": 34,
      "@": 35,
      "A": 36,
      "B": 37,
      "C": 38,
      "D": 39,
      "E": 40,
      "F": 41,
      "G": 42,
      "H": 43,
      "I": 44,
      "J": 45,
      "K": 46,
      "L": 47,
      "M": 48,
      "N": 49,
      "O": 50,
      "P": 51,
      "Q": 52,
      "R": 53,
      "S": 54,
      "T": 55,
      "U": 56,
      "V": 57,
      "W": 58,
      "X": 59,
      "Y": 60,
      "Z": 61,
      "[": 62,
      "\\": 63,
      "]": 64,
      "^": 65,
      "_": 66,
      "`": 67,
      "a": 68,
      "b": 69,
      "c": 70,
      "d": 71,
      "e": 72,
      "f": 73,
      "g": 74,
      "h": 75,
      "i": 76,
      "j": 77,
      "k": 78,
      "l": 79,
      "m": 80,
      "n": 81,
      "o": 82,
      "p": 83,
      "q": 84,
      "r": 85,
      "s": 86,
      "t": 87,
      "u": 88,
      "v": 89,
      "w": 90,
      "x": 91,
      "y": 92,
      "z": 93,
      "{": 94,
      "|": 95,
      "}": 96,
      "~": 97,
      "¡": 98,
      "¢": 99,
      "£": 100,
      "¤": 101,
      "¥": 102,
      "¦": 103,
      "§": 104,
      "¨": 105,
      "©": 106,
      "ª": 107,
      "«": 108,
      "¬": 109,
      "®": 110,
      "¯": 111,
      "°": 112,
      "±": 113,
      "²": 114,
      "³": 115,
      "´": 116,
      "µ": 117,
      "¶": 118,
      "·": 119,
      "¸": 120,
      "¹": 121,
      "º": 122,
      "»": 123,
      "¼": 124,
      "½": 125,
      "¾": 126,
      "¿": 127,
      "Â": 128,
      "Ã": 129,
      "Ä": 130,
      "Å": 131,
      "Æ": 132,
      "Ç": 133,
      "È": 134,
      "É": 135,
      "Ê": 136,
      "Ë": 137,
      "Ì": 138,
      "Í": 139,
      "Î": 140,
      "Ï": 141,
      "Ð": 142,
      "Ñ": 143,
      "Ò": 144,
      "Ó": 145,
      "Ô": 146,
      "Õ": 147,
      "Ö": 148,
      "×": 149,
      "Ø": 150,
      "Ù": 151,
      "Ú": 152,
      "Û": 153,
      "Ü": 154,
      "Ý": 155,
      "ß": 156,
      "à": 157,
      "á": 158,
      "â": 159,
      "ã": 160,
      "ä": 161,
      "å": 162,
      "æ": 163,
      "ç": 164,
      "è": 165,
      "é": 166,
      "ê": 167,
      "ë": 168,
      "ì": 169,
      "í": 170,
      "î": 171,
      "ï": 172,
      "ð": 173,
      "ñ": 174,
      "ó": 175,
      "ĉ": 176,
      "Ċ": 177,
      "Ġ": 178,
      "ġ": 179,
      "Ģ": 180,
      "ģ": 181,
      "Ĥ": 182,
      "ĥ": 183,
      "Ħ": 184,
      "ħ": 185,
      "Ĩ": 186,
      "ĩ": 187,
      "Ī": 188,
      "ī": 189,
      "Ĭ": 190,
      "ĭ": 191,
      "Į": 192,
      "į": 193,
      "İ": 194,
      "ı": 195,
      "Ĳ": 196,
      "ĳ": 197,
      "Ĵ": 198,
      "ĵ": 199,
      "Ķ": 200,
      "ķ": 201,
      "ĸ": 202,
      "Ĺ": 203,
      "ĺ": 204,
      "Ļ": 205,
      "ļ": 206,
      "Ľ": 207,
      "ľ": 208,
      "Ŀ": 209,
      "ŀ": 210,
      "Ł": 211,
      "ł": 212,
      "Ń": 213,
      "ï¼": 214,
      "ä¸": 215,
      "ãĢ": 216,
      "ï¼Į": 217,
      "çļ": 218,
      "äº": 219,
      "çļĦ": 220,
      "ãĢĤ": 221,
      "åı": 222,
      "æľ": 223,
      "åħ": 224,
      "å¤": 225,
      "å¹": 226,
      "ä»": 227,
      "åĽ": 228,
      "åľ": 229,
      "åĪ": 230,
      "ĠĊ": 231,
      "å®": 232,
      "åĲ": 233,
      "å¹´": 234,
      "çĶ": 235,
      "æĹ": 236,
      "ä½": 237,
      "æĸ": 238,
      "ãĢģ": 239,
      "ä¹": 240,
      "åį": 241,
      "è¿": 242,
      "åŃ": 243,
      "æĺ": 244,
      "ç»": 245,
      "åĽ½": 246,
      "å°": 247,
      "ä¸Ń": 248,
      "ä¼": 249,
      "æĪ": 250,
      "åľ¨": 251,
      "åĮ": 252,
      "åĬ": 253,
      "ä¸º": 254,
      "ä¸Ģ": 255,
      "å¸": 256,
      "è¯": 257,
      "è®": 258,
      "åĨ": 259,
      "ï¼Ī": 260,
      "ï¼ī": 261,
      "æĿ": 262,
      "äºº": 263,
      "å¤§": 264,
      "æĺ¯": 265,
      "å¼": 266,
      "éĩ": 267,
      "åº": 268,
      "å·": 269,
      "å¾": 270,
      "æľī": 271,
      "âĢ": 272,
      "ç§": 273,
      "çī": 274,
      "æĶ": 275,
      "æ°": 276,
      "åĴ": 277,
      "èĢ": 278,
      "æķ": 279,
      "éĢ": 280,
      "è¡": 281,
      "çº": 282,
      "æī": 283,
      "åĩ": 284,
      "å±": 285,
      "åŃ¦": 286,
      "åĴĮ": 287,
      "19": 288,
      "éĻ": 289,
      "æŃ": 290,
      "éĥ": 291,
      "çİ": 292,
      "å¯": 293,
      "å½": 294,
      "åİ": 295,
      "æ³": 296,
      "äºİ": 297,
      "çĽ": 298,
      "æĹ¥": 299,
      "èĩ": 300,
      "ä»¥": 301,
      "æľĪ": 302,
      "æł": 303,
      "è§": 304,
      "ï¼ļ": 305,
      "æµ": 306,
      "æĢ": 307,
      "20": 308,
      "æ²": 309,
      "å¥": 310,
      "åĳ": 311,
      "ä¼ļ": 312,
      "åĲİ": 313,
      "æĹ¶": 314,
      "èµ": 315,
      "æĭ": 316,
      "äºĨ": 317,
      "åľ°": 318,
      "éĺ": 319,
      "æĪĲ": 320,
      "ä¸į": 321,
      "è´": 322,
      "ç«": 323,
      "è¾": 324,
      "æ¸": 325,
      "éĹ": 326,
      "åŁ": 327,
      "ä¹ĭ": 328,
      "ä¸Ĭ": 329,
      "ä¸ª": 330,
      "çĲ": 331,
      "éĿ": 332,
      "æŀ": 333,
      "ä¸»": 334,
      "åĩº": 335,
      "æ´": 336,
      "ãĢĬ": 337,
      "ãĢĭ": 338,
      "ä¸İ": 339,
      "æĬ": 340,
      "åī": 341,
      "çĶŁ": 342,
      "çŃ": 343,
      "è¡Į": 344,
      "å®¶": 345,
      "ç¬": 346,
      "éĥ¨": 347,
      "æ°ĳ": 348,
      "æ±": 349,
      "åıĳ": 350,
      "æİ": 351,
      "èĥ": 352,
      "ä¿": 353,
      "æ¯": 354,
      "ä½ľ": 355,
      "éķ": 356,
      "æĸĩ": 357,
      "çĶ¨": 358,
      "åħ¶": 359,
      "å¿": 360,
      "è½": 361,
      "ä»ĸ": 362,
      "ç½": 363,
      "æĸ¯": 364,
      "æ³ķ": 365,
      "åĪĨ": 366,
      "åħ¬": 367,
      "åĮº": 368,
      "æĶ¿": 369,
      "éģ": 370,
      "æĽ": 371,
      "ç¾": 372,
      "èĭ": 373,
      "ç¬¬": 374,
      "é¢": 375,
      "èĢĮ": 376,
      "åĨĽ": 377,
      "è¢": 378,
      "é¦": 379,
      "æĸ¹": 380,
      "å»": 381,
      "åĪ°": 382,
      "åŃĲ": 383,
      "å¯¹": 384,
      "å§": 385,
      "è¥": 386,
      "åıĬ": 387,
      "æ¬": 388,
      "åĵ": 389,
      "ä¸ĸ": 390,
      "å¤ļ": 391,
      "è¥¿": 392,
      "æĿ¥": 393,
      "æĮ": 394,
      "æľ¬": 395,
      "ä¾": 396,
      "åĲį": 397,
      "è¿Ļ": 398,
      "éĽ": 399,
      "ãĢĮ": 400,
      "ãĢį": 401,
      "åĲĮ": 402,
      "Â·": 403,
      "èĩª": 404,
      "åįĹ": 405,
      "ä»£": 406,
      "åı¯": 407,
      "âĢľ": 408,
      "âĢĿ": 409,
      "å°Ķ": 410,
      "å¹¶": 411,
      "éķ¿": 412,
      "è¢«": 413,
      "å¸Ĥ": 414,
      "åĬ¨": 415,
      "çĶ±": 416,
      "¦ģ": 417,
      "åı°": 418,
      "çŃī": 419,
      "åĮĹ": 420,
      "æĸ°": 421,
      "è·": 422,
      "æľĢ": 423,
      "é«": 424,
      "ç«ĭ": 425,
      "çĶµ": 426,
      "ä¸ĭ": 427,
      "é«ĺ": 428,
      "ä¹Ł": 429,
      "çī©": 430,
      "å¼Ģ": 431,
      "çĲĨ": 432,
      "ç»ı": 433,
      "ä¸ľ": 434,
      "å¦": 435,
      "é©": 436,
      "æīĢ": 437,
      "è¦ģ": 438,
      "ç¾İ": 439,
      "ä¸ī": 440,
      "èģ": 441,
      "æķĻ": 442,
      "ç¤": 443,
      "åĮĸ": 444,
      "çī¹": 445,
      "ç±": 446,
      "åĳĺ": 447,
      "å£": 448,
      "æĻ": 449,
      "ä½į": 450,
      "ç©": 451,
      "åīį": 452,
      "å¤ĸ": 453,
      "æķ°": 454,
      "èī": 455,
      "åĽł": 456,
      "ç¥": 457,
      "å»º": 458,
      "æĪĺ": 459,
      "çķ": 460,
      "åĿ": 461,
      "çİ°": 462,
      "å®ļ": 463,
      "å¾·": 464,
      "èĪ": 465,
      "Ł³": 466,
      "è¿ĩ": 467,
      "æľº": 468,
      "ä¸ŃåĽ½": 469,
      "èĥ½": 470,
      "ä½ĵ": 471,
      "è°": 472,
      "åĨħ": 473,
      "å±±": 474,
      "æľŁ": 475,
      "200": 476,
      "åĪ©": 477,
      "æµ·": 478,
      "æŃ¤": 479,
      "äºĭ": 480,
      "å¤©": 481,
      "çİĭ": 482,
      "åĬł": 483,
      "Ġ19": 484,
      "åħ¨": 485,
      "ç³": 486,
      "åĪ¶": 487,
      "å·¥": 488,
      "çľ": 489,
      "å²": 490,
      "èĢħ": 491,
      "äºĮ": 492,
      "éĵ": 493,
      "åĲĪ": 494,
      "äºļ": 495,
      "æ¹": 496,
      "éĩĮ": 497,
      "ç§°": 498,
      "éĢļ": 499,
      "éĹ´": 500,
      "å¾Ĺ": 501,
      "åħĭ": 502,
      "æĢ§": 503,
      "ä»»": 504,
      "ä¸ļ": 505,
      "æĦ": 506,
      "å°Ĩ": 507,
      "éģĵ": 508,
      "ä½¿": 509,
      "åħ±": 510,
      "è¡¨": 511,
      "ç®": 512,
      "å½ĵ": 513,
      "èĩ³": 514,
      "åº¦": 515,
      "ç¨": 516,
      "éļ": 517,
      "è¿Ľ": 518,
      "åįģ": 519,
      "æı": 520,
      "èĤ": 521,
      "ç»Ł": 522,
      "é¡": 523,
      "æĥ": 524,
      "è¯Ń": 525,
      "ç³»": 526,
      "èĬ": 527,
      "ä½Ĩ": 528,
      "éĩį": 529,
      "çĻ": 530,
      "å°ı": 531,
      "åħ¥": 532,
      "å¹³": 533,
      "éĥ½": 534,
      "é©¬": 535,
      "éĻ¢": 536,
      "çĽ¸": 537,
      "è¶": 538,
      "ï¼Ľ": 539,
      "ç§į": 540,
      "èİ": 541,
      "çł": 542,
      "éĿ¢": 543,
      "è·¯": 544,
      "é£": 545,
      "10": 546,
      "åįİ": 547,
      "æ¬¡": 548,
      "åĬĽ": 549,
      "æį": 550,
      "åİŁ": 551,
      "ç§ĳ": 552,
      "çĤ": 553,
      "æĭī": 554,
      "èĲ": 555,
      "å¼ı": 556,
      "æĺİ": 557,
      "er": 558,
      "åħĥ": 559,
      "åħ³": 560,
      "æ¸¯": 561,
      "å¦Ĥ": 562,
      "æ²»": 563,
      "æĢ»": 564,
      "äº§": 565,
      "ä¹ī": 566,
      "å¢": 567,
      "å·ŀ": 568,
      "åŁº": 569,
      "éĤ": 570,
      "éĩĳ": 571,
      "è®¾": 572,
      "æ¼": 573,
      "an": 574,
      "èĭ±": 575,
      "å®ī": 576,
      "çĪ": 577,
      "ç½Ĺ": 578,
      "ä¸¤": 579,
      "18": 580,
      "åŁİ": 581,
      "ç¦": 582,
      "æŁ": 583,
      "æĪĸ": 584,
      "æ¡": 585,
      "æģ": 586,
      "ï¼īï¼Į": 587,
      "èĳ": 588,
      "çĦ": 589,
      "âĢĶ": 590,
      "èģĶ": 591,
      "éĩı": 592,
      "é»": 593,
      "æ°´": 594,
      "ä¸Ģä¸ª": 595,
      "æŃ£": 596,
      "è¿Ĳ": 597,
      "åºľ": 598,
      "å£«": 599,
      "åı²": 600,
      "çº¿": 601,
      "åĢ": 602,
      "å¸¸": 603,
      "å½±": 604,
      "çģ": 605,
      "å¸ĥ": 606,
      "ä¹¦": 607,
      "ç¼": 608,
      "èį": 609,
      "åľº": 610,
      "åģ": 611,
      "å®ŀ": 612,
      "åĽĽ": 613,
      "çº¦": 614,
      "åıĤ": 615,
      "è®®": 616,
      "in": 617,
      "åı£": 618,
      "æ¯Ķ": 619,
      "è¾¾": 620,
      "å¤§åŃ¦": 621,
      "çŁ": 622,
      "ä»İ": 623,
      "on": 624,
      "è®¡": 625,
      "èµ·": 626,
      "è½¦": 627,
      "åİ¿": 628,
      "ä¼ł": 629,
      "æĹł": 630,
      "çĦ¶": 631,
      "çķĮ": 632,
      "ç¨ĭ": 633,
      "12": 634,
      "é¦Ļ": 635,
      "ç»ĵ": 636,
      "ç»Ħ": 637,
      "æ¹¾": 638,
      "ç¾İåĽ½": 639,
      "è¯´": 640,
      "éŁ³": 641,
      "æĶ¹": 642,
      "æıĲ": 643,
      "åħ°": 644,
      "åı·": 645,
      "æł¡": 646,
      "å¥³": 647,
      "ç¤¾": 648,
      "ä»¬": 649,
      "00": 650,
      "æł¼": 651,
      "æİ¥": 652,
      "æľĿ": 653,
      "å°±": 654,
      "æ®": 655,
      "å¿ĥ": 656,
      "åĪĹ": 657,
      "åĶ": 658,
      "æ¼Ķ": 659,
      "åı¸": 660,
      "æº": 661,
      "åĪĻ": 662,
      "ç´": 663,
      "æĦı": 664,
      "æŀĹ": 665,
      "çĲĥ": 666,
      "æĹı": 667,
      "éħ": 668,
      "åı¤": 669,
      "ç±»": 670,
      "åİĨ": 671,
      "åħļ": 672,
      "äº¤": 673,
      "å¡": 674,
      "çĽ®": 675,
      "å½¢": 676,
      "å°¼": 677,
      "å¤ª": 678,
      "éĺŁ": 679,
      "éĶ": 680,
      "äºĽ": 681,
      "å¸Ŀ": 682,
      "åŃĹ": 683,
      "åĬ¡": 684,
      "è®¤": 685,
      "æĿĥ": 686,
      "éĢī": 687,
      "éľ": 688,
      "å¹¿": 689,
      "çºª": 690,
      "è§Ĩ": 691,
      "é¦ĸ": 692,
      "è®º": 693,
      "å§ĭ": 694,
      "11": 695,
      "éĺ¿": 696,
      "æ¶": 697,
      "åŀ": 698,
      "åĲĳ": 699,
      "æĺŁ": 700,
      "éĴ": 701,
      "åıĹ": 702,
      "é¢Ĩ": 703,
      "ĠĠ": 704,
      "é¦Ļæ¸¯": 705,
      "æµģ": 706,
      "ä¸ĩ": 707,
      "åºĶ": 708,
      "ä¿Ŀ": 709,
      "è£": 710,
      "å±ŀ": 711,
      "å·´": 712,
      "ä¹Ĳ": 713,
      "åĲĦ": 714,
      "æĶ¿åºľ": 715,
      "çĭ": 716,
      "åĽ½å®¶": 717,
      "æĹ¥æľ¬": 718,
      "åĵģ": 719,
      "éĹ¨": 720,
      "å±ķ": 721,
      "åĮħ": 722,
      "åıĺ": 723,
      "æĴ": 724,
      "çĤ¹": 725,
      "åıį": 726,
      "å¨": 727,
      "å·²": 728,
      "æĮĩ": 729,
      "çĥ": 730,
      "å¯¼": 731,
      "åı°æ¹¾": 732,
      "æ·": 733,
      "æľ¯": 734,
      "éĽĨ": 735,
      "èī²": 736,
      "èµĦ": 737,
      "æ²³": 738,
      "äºĶ": 739,
      "ç©º": 740,
      "æ±Ł": 741,
      "çĽ´": 742,
      "æīĭ": 743,
      "ç²": 744,
      "or": 745,
      "å¤Ħ": 746,
      "en": 747,
      "äº¬": 748,
      "æĮģ": 749,
      "åķ": 750,
      "æ±ī": 751,
      "åĭ": 752,
      "èĳĹ": 753,
      "æ¢": 754,
      "çľģ": 755,
      "ä¿¡": 756,
      "ç¥ŀ": 757,
      "é²": 758,
      "çº§": 759,
      "çłĶ": 760,
      "å§Ķ": 761,
      "è®°": 762,
      "ar": 763,
      "æ¸ħ": 764,
      "åĳ½": 765,
      "åı¯ä»¥": 766,
      "åĽ¢": 767,
      "ç»´": 768,
      "å°ĳ": 769,
      "èĻ": 770,
      "çĿ": 771,
      "æ£": 772,
      "æĽ´": 773,
      "ç¡": 774,
      "å¼ł": 775,
      "èĮ": 776,
      "al": 777,
      "çīĪ": 778,
      "ç®¡": 779,
      "è¿ĺ": 780,
      "è¯¥": 781,
      "æ´²": 782,
      "å®ĺ": 783,
      "è§£": 784,
      "ä½¿çĶ¨": 785,
      "åĪ«": 786,
      "éĿŀ": 787,
      "éĢł": 788,
      "èĴ": 789,
      "æį®": 790,
      "ç±³": 791,
      "è¨": 792,
      "åł": 793,
      "èĭı": 794,
      "è¨Ģ": 795,
      "éĻħ": 796,
      "ä»¶": 797,
      "199": 798,
      "15": 799,
      "å¸Ī": 800,
      "åŀĭ": 801,
      "èĢĥ": 802,
      "åĽ¾": 803,
      "èº": 804,
      "æĽ¾": 805,
      "å²Ľ": 806,
      "éª": 807,
      "16": 808,
      "åħī": 809,
      "åĽŀ": 810,
      "ç©¶": 811,
      "éĵģ": 812,
      "åıª": 813,
      "æ»": 814,
      "åķĨ": 815,
      "æĪĲä¸º": 816,
      "å®Ĺ": 817,
      "ï¼īãĢĤ": 818,
      "æĬ¥": 819,
      "17": 820,
      "è¿ŀ": 821,
      "ç«Ļ": 822,
      "æ°Ķ": 823,
      "èĦ": 824,
      "äºī": 825,
      "æĿ¡": 826,
      "åĻ": 827,
      "çŁ³": 828,
      "ĠS": 829,
      "çĮ": 830,
      "æŃ¦": 831,
      "åıĸ": 832,
      "at": 833,
      "æĿİ": 834,
      "çłĶç©¶": 835,
      "èº«": 836,
      "åį³": 837,
      "çĹ": 838,
      "é¾": 839,
      "è´¨": 840,
      "Ġ20": 841,
      "æ¸¸": 842,
      "æĶ¯": 843,
      "es": 844,
      "è±": 845,
      "çĸ": 846,
      "æĥħ": 847,
      "çĬ": 848,
      "äººæ°ĳ": 849,
      "è§ģ": 850,
      "ä¸ĸçķĮ": 851,
      "å®ĥ": 852,
      "çļĩ": 853,
      "åľ°åĮº": 854,
      "æµİ": 855,
      "ç¿": 856,
      "å¼Ģå§ĭ": 857,
      "çı": 858,
      "ç¬¬ä¸Ģ": 859,
      "æ´»": 860,
      "å¤«": 861,
      "æ²¡": 862,
      "åĳ¨": 863,
      "èİ·": 864,
      "è¿ĳ": 865,
      "ç¤º": 866,
      "åįķ": 867,
      "çĻ½": 868,
      "èĤ²": 869,
      "Ġ(": 870,
      "ä¸»è¦ģ": 871,
      "ä¸ĵ": 872,
      "æĶ¾": 873,
      "åĻ¨": 874,
      "èĬĤ": 875,
      "ĠC": 876,
      "èµĽ": 877,
      "ï¼į": 878,
      "åį¡": 879,
      "æ´¾": 880,
      "éĺ³": 881,
      "æŀĦ": 882,
      "ä¸¾": 883,
      "åĸ": 884,
      "æĻ®": 885,
      "æ³¢": 886,
      "æºĲ": 887,
      "åĨ³": 888,
      "å±Ģ": 889,
      "å¤į": 890,
      "æŀľ": 891,
      "Ġ-": 892,
      "åħĪ": 893,
      "é¢ĺ": 894,
      "åľŁ": 895,
      "åħ¬åı¸": 896,
      "é£İ": 897,
      "ä»Ĭ": 898,
      "åī§": 899,
      "åıĪ": 900,
      "æĭ¬": 901,
      "åĪĴ": 902,
      "å¥¥": 903,
      "ä¾ĭ": 904,
      "è®¤ä¸º": 905,
      "è§Ĥ": 906,
      "ĠãĢĬ": 907,
      "è®¸": 908,
      "æ¨": 909,
      "ç½ĳ": 910,
      "åħŃ": 911,
      "14": 912,
      "13": 913,
      "ä¸Ńåįİ": 914,
      "æĶ¶": 915,
      "å¥ĸ": 916,
      "éĻĨ": 917,
      "ãĥ": 918,
      "å¸¦": 919,
      "æłĩ": 920,
      "ic": 921,
      "è¾ĥ": 922,
      "è§Ħ": 923,
      "ä»¥åıĬ": 924,
      "åĮħæĭ¬": 925,
      "åĩ»": 926,
      "éĹ®": 927,
      "æŃĮ": 928,
      "åİĨåı²": 929,
      "åĪĽ": 930,
      "Ġ200": 931,
      "å¼º": 932,
      "åĽŃ": 933,
      "æ¬§": 934,
      "äººåı£": 935,
      "æĽ²": 936,
      "åįł": 937,
      "æ²¡æľī": 938,
      "ä¼Ĭ": 939,
      "åħµ": 940,
      "he": 941,
      "éĥ¨åĪĨ": 942,
      "çŁ¥": 943,
      "åİ»": 944,
      "è°ĥ": 945,
      "åħ¶ä»ĸ": 946,
      "åĪĿ": 947,
      "è§Ĵ": 948,
      "éĻ¤": 949,
      "å¾Ī": 950,
      "éŁ": 951,
      "æł¹": 952,
      "çº³": 953,
      "æĶ¿æ²»": 954,
      "is": 955,
      "æĳ": 956,
      "ä¸»ä¹ī": 957,
      "æŃ»": 958,
      "æľª": 959,
      "æĸĩåĮĸ": 960,
      "åŃĺ": 961,
      "åħ«": 962,
      "ĠP": 963,
      "ç¦»": 964,
      "é¾Ļ": 965,
      "è½¬": 966,
      "ĠA": 967,
      "ä¸Ķ": 968,
      "å¤´": 969,
      "è¿Ľè¡Į": 970,
      "å¼ķ": 971,
      "å®Į": 972,
      "çīĩ": 973,
      "ĠM": 974,
      "åĥ": 975,
      "åıĳå±ķ": 976,
      "ç¦ı": 977,
      "å¨ģ": 978,
      "Ġ|": 979,
      "é»Ħ": 980,
      "ç¤¾ä¼ļ": 981,
      "ä»¤": 982,
      "åĨį": 983,
      "198": 984,
      "å±ħ": 985,
      "it": 986,
      "åĦ": 987,
      "çĶ»": 988,
      "ç»ıæµİ": 989,
      "å¢ŀ": 990,
      "åħ¶ä¸Ń": 991,
      "æĬĢ": 992,
      "äº¦": 993,
      "èĹ": 994,
      "å®£": 995,
      "æİ¨": 996,
      "å¾Ģ": 997,
      "éķĩ": 998,
      "çİĩ": 999,
      "çĻ¾": 1000,
      "åħ·": 1001,
      "æĪĳ": 1002,
      "ä¸ĸçºª": 1003,
      "æĸĻ": 1004,
      "å¤®": 1005,
      "èĭ±åĽ½": 1006,
      "æ¯ı": 1007,
      "èģĮ": 1008,
      "é¥": 1009,
      "å¿Ĺ": 1010,
      "çĪ±": 1011,
      "çĶ±äºİ": 1012,
      "åį«": 1013,
      "å§Ķåĳĺ": 1014,
      "éĿ©": 1015,
      "åĬŁ": 1016,
      "ç¼ĸ": 1017,
      "ĠåıĤ": 1018,
      "æ®µ": 1019,
      "é¦Ĩ": 1020,
      "ä¹Ŀ": 1021,
      "éĻĪ": 1022,
      "èĪª": 1023,
      "å¸Į": 1024,
      "æ±Ĥ": 1025,
      "éĢŁ": 1026,
      "åĽ½éĻħ": 1027,
      "åŁŁ": 1028,
      "æĹ©": 1029,
      "æ¥": 1030,
      "ï¼īãĢģ": 1031,
      "èħ": 1032,
      "ä¸Ńå¤®": 1033,
      "æł·": 1034,
      "è¶Ĭ": 1035,
      "åŃ¦éĻ¢": 1036,
      "âĢĶâĢĶ": 1037,
      "ä¿®": 1038,
      "éļı": 1039,
      "åľ£": 1040,
      "æľį": 1041,
      "ç´ł": 1042,
      "åħ´": 1043,
      "äº²": 1044,
      "çĶµå½±": 1045,
      "åĨĻ": 1046,
      "èı": 1047,
      "ç»Ļ": 1048,
      "çĭ¬": 1049,
      "åĵį": 1050,
      "çĳ": 1051,
      "åĩĨ": 1052,
      "èĩ´": 1053,
      "å¢ĥ": 1054,
      "é¸": 1055,
      "åĬŀ": 1056,
      "çĵ": 1057,
      "ç»Ń": 1058,
      "èīº": 1059,
      "å¥½": 1060,
      "åį°": 1061,
      "è¯Ŀ": 1062,
      "çģ«": 1063,
      "åħ±åĴĮ": 1064,
      "è¶ħ": 1065,
      "le": 1066,
      "ä¼¯": 1067,
      "åįı": 1068,
      "ä»ĸä»¬": 1069,
      "æļ": 1070,
      "æĹ¶æľŁ": 1071,
      "ĠT": 1072,
      "ä¸ŃçļĦ": 1073,
      "ç³»ç»Ł": 1074,
      "åĽłæŃ¤": 1075,
      "æ¯į": 1076,
      "ç¬¬äºĮ": 1077,
      "èĬ±": 1078,
      "åı¦": 1079,
      "Ġåľ¨": 1080,
      "æķħ": 1081,
      "è¿ĲåĬ¨": 1082,
      "éº": 1083,
      "çĶµè§Ĩ": 1084,
      "åŃ¦å®¶": 1085,
      "çĹħ": 1086,
      "ä¼Ĺ": 1087,
      "æĺĵ": 1088,
      "æĴŃ": 1089,
      "åĵĪ": 1090,
      "å¯Ĩ": 1091,
      "åĽłä¸º": 1092,
      "åĮ»": 1093,
      "æŁ¥": 1094,
      "çª": 1095,
      "çĶ°": 1096,
      "æ¡Ī": 1097,
      "æķ´": 1098,
      "å£°": 1099,
      "è±¡": 1100,
      "ç»ĩ": 1101,
      "çİ¯": 1102,
      "æĶ»": 1103,
      "æĢĿ": 1104,
      "ä¸ĥ": 1105,
      "ç¾¤": 1106,
      "å½ĵæĹ¶": 1107,
      "ä½ķ": 1108,
      "ç§°ä¸º": 1109,
      "ç¢": 1110,
      "æŀģ": 1111,
      "ãĢĭï¼Į": 1112,
      "å®¹": 1113,
      "å½ķ": 1114,
      "é£ŀ": 1115,
      "å®¢": 1116,
      "åĿĩ": 1117,
      "ç½®": 1118,
      "çļĦä¸Ģ": 1119,
      "æ¹ĸ": 1120,
      "è¯į": 1121,
      "èĲ¥": 1122,
      "çº¢": 1123,
      "æĥ³": 1124,
      "çħ": 1125,
      "å¾ĭ": 1126,
      "æķĻèĤ²": 1127,
      "åįĬ": 1128,
      "è¯ģ": 1129,
      "ä¸įåĲĮ": 1130,
      "ä»£è¡¨": 1131,
      "æ²Ļ": 1132,
      "åĨľ": 1133,
      "æ¨¡": 1134,
      "åĲī": 1135,
      "åı¯èĥ½": 1136,
      "åĥı": 1137,
      "è£ħ": 1138,
      "ç»Ī": 1139,
      "æīĵ": 1140,
      "åĦ¿": 1141,
      "é¡¹": 1142,
      "å·±": 1143,
      "å¤±": 1144,
      "æĬ¤": 1145,
      "åįļ": 1146,
      "æĬķ": 1147,
      "ç®Ĺ": 1148,
      "30": 1149,
      "ãĢįï¼Į": 1150,
      "ol": 1151,
      "å¡Ķ": 1152,
      "é²ģ": 1153,
      "ç§¯": 1154,
      "ä¾Ľ": 1155,
      "âĢĿãĢĤ": 1156,
      "ç»§": 1157,
      "åħ¸": 1158,
      "æĻ¯": 1159,
      "å¤ĩ": 1160,
      "åħ±åĴĮåĽ½": 1161,
      "éĤ£": 1162,
      "ä¼¦": 1163,
      "å¸Ń": 1164,
      "åĪĺ": 1165,
      "å½±åĵį": 1166,
      "æĤ": 1167,
      "æīį": 1168,
      "çľŁ": 1169,
      "éĿĴ": 1170,
      "éľĢ": 1171,
      "ä½ľä¸º": 1172,
      "è¾¹": 1173,
      "ä½įäºİ": 1174,
      "è¯Ħ": 1175,
      "ä¸Ńå¿ĥ": 1176,
      "æĪı": 1177,
      "æ³¨": 1178,
      "22": 1179,
      "ä¹¡": 1180,
      "ä¹ĭä¸Ģ": 1181,
      "ĠB": 1182,
      "æħ": 1183,
      "Ġ199": 1184,
      "ion": 1185,
      "è¯º": 1186,
      "èĢģ": 1187,
      "éĻĲ": 1188,
      "çĶ·": 1189,
      "åĭĴ": 1190,
      "ä¹ĭåĲİ": 1191,
      "197": 1192,
      "å¿µ": 1193,
      "of": 1194,
      "åĩł": 1195,
      "éĢļè¿ĩ": 1196,
      "åĲĮæĹ¶": 1197,
      "å°Ħ": 1198,
      "æ´Ľ": 1199,
      "æĿĢ": 1200,
      "åĶĲ": 1201,
      "é£Ł": 1202,
      "ä»į": 1203,
      "ä»½": 1204,
      "æ½": 1205,
      "æľ¨": 1206,
      "æĸ½": 1207,
      "ä½Ľ": 1208,
      "è¶³": 1209,
      "Ġt": 1210,
      "èĩªå·±": 1211,
      "éŃ": 1212,
      "åº§": 1213,
      "âĢĿï¼Į": 1214,
      "æĪĲç«ĭ": 1215,
      "è¿ĻäºĽ": 1216,
      "èĮĥ": 1217,
      "æŃ¥": 1218,
      "çĮ®": 1219,
      "194": 1220,
      "èĲ¨": 1221,
      "ç»Ħç»ĩ": 1222,
      "çĽŁ": 1223,
      "æĦŁ": 1224,
      "æĢģ": 1225,
      "æīĺ": 1226,
      "re": 1227,
      "21": 1228,
      "çıŃ": 1229,
      "åĬ©": 1230,
      "å®¤": 1231,
      "æ¸©": 1232,
      "ç¡®": 1233,
      "ä½İ": 1234,
      "æī¹": 1235,
      "åĳĬ": 1236,
      "st": 1237,
      "å¥¹": 1238,
      "ä¿Ħ": 1239,
      "50": 1240,
      "å¾ģ": 1241,
      "æİĴ": 1242,
      "éĩĩ": 1243,
      "æĪĺäºī": 1244,
      "å·¥ä½ľ": 1245,
      "è´¹": 1246,
      "å¡ŀ": 1247,
      "ãĢĭï¼Ī": 1248,
      "ç«ł": 1249,
      "zh": 1250,
      "ĠI": 1251,
      "æĬĬ": 1252,
      "åĽ´": 1253,
      "å·Ŀ": 1254,
      "æī¿": 1255,
      "è¡ĮæĶ¿": 1256,
      "åŃ¦æł¡": 1257,
      "ro": 1258,
      "ä½ı": 1259,
      "ç²¾": 1260,
      "å¹²": 1261,
      "èİ·å¾Ĺ": 1262,
      "el": 1263,
      "åŁİå¸Ĥ": 1264,
      "ä»ĸçļĦ": 1265,
      "å±Ĥ": 1266,
      "åħ¨åĽ½": 1267,
      "èĲ½": 1268,
      "éĻį": 1269,
      "å¹´ä»£": 1270,
      "é»ĳ": 1271,
      "æŃ¢": 1272,
      "ĠL": 1273,
      "åıĮ": 1274,
      "éĹ®é¢ĺ": 1275,
      "ãĢįãĢĤ": 1276,
      "çŃĳ": 1277,
      "æµĭ": 1278,
      "ä¾¿": 1279,
      "çĿ£": 1280,
      "çĿĢ": 1281,
      "åĬ¿": 1282,
      "è®¸å¤ļ": 1283,
      "ä¸ĬçļĦ": 1284,
      "è¿Ļä¸ª": 1285,
      "è¿ľ": 1286,
      "æ³ķåĽ½": 1287,
      "åłĤ": 1288,
      "åŃ£": 1289,
      "æ·±": 1290,
      "åº·": 1291,
      "è¯ķ": 1292,
      "ĠH": 1293,
      "æ°ĳåĽ½": 1294,
      "åĩºçİ°": 1295,
      "åįĥ": 1296,
      "å®ĭ": 1297,
      "æĹ¶éĹ´": 1298,
      "å®«": 1299,
      "éŁ©": 1300,
      "23": 1301,
      "çĬ¶": 1302,
      "éĺ²": 1303,
      "æ°ı": 1304,
      "åĮĹäº¬": 1305,
      "æ´ĭ": 1306,
      "å»ºç«ĭ": 1307,
      "è½½": 1308,
      "ä»·": 1309,
      "å¤§çļĦ": 1310,
      "éĩįè¦ģ": 1311,
      "ä»ħ": 1312,
      "å§Ķåĳĺä¼ļ": 1313,
      "196": 1314,
      "åī¯": 1315,
      "ĠR": 1316,
      "}-": 1317,
      "æĿĳ": 1318,
      "æĢ»ç»Ł": 1319,
      "å¯Į": 1320,
      "æĽ¼": 1321,
      "åĢ¼": 1322,
      "çĪ¶": 1323,
      "ä½Ļ": 1324,
      "çķĻ": 1325,
      "æ¾": 1326,
      "äºĳ": 1327,
      "Ġof": 1328,
      "æ¦": 1329,
      "èĴĻ": 1330,
      "å´": 1331,
      "æł¸": 1332,
      "åıĭ": 1333,
      "å¹´çļĦ": 1334,
      "è®©": 1335,
      "ç§»": 1336,
      "éħį": 1337,
      "25": 1338,
      "ä½ľåĵģ": 1339,
      "çľĭ": 1340,
      "çĥŃ": 1341,
      "æĺ¾": 1342,
      "éĢĿ": 1343,
      "ĠD": 1344,
      "å©": 1345,
      "å®ģ": 1346,
      "ä¾Ŀ": 1347,
      "çĻ»": 1348,
      "æĬĹ": 1349,
      "ä¸ĢäºĽ": 1350,
      "åĺ": 1351,
      "è¿°": 1352,
      "å±Ĭ": 1353,
      "æİ§": 1354,
      "å³": 1355,
      "åıĳçİ°": 1356,
      "çĵ¦": 1357,
      "ĠåıĤèĢĥ": 1358,
      "éĽ·": 1359,
      "äº¡": 1360,
      "åĩºçĶŁ": 1361,
      "éŁ³ä¹Ĳ": 1362,
      "å²ģ": 1363,
      "æīĢæľī": 1364,
      "ĠĠĠĠ": 1365,
      "åįĩ": 1366,
      "æ»¡": 1367,
      "èĹı": 1368,
      "æķĪ": 1369,
      "ch": 1370,
      "åĩºçīĪ": 1371,
      "éªĮ": 1372,
      "éĵ¶": 1373,
      "åĵ¥": 1374,
      "è´Ŀ": 1375,
      "åŃĻ": 1376,
      "åıĳçĶŁ": 1377,
      "éĵģè·¯": 1378,
      "å¿ħ": 1379,
      "å·¥ç¨ĭ": 1380,
      "id": 1381,
      "è¯Ĩ": 1382,
      "è®¾è®¡": 1383,
      "å¸ĿåĽ½": 1384,
      "åħ³ç³»": 1385,
      "è¡¨ç¤º": 1386,
      "et": 1387,
      "æ¡¥": 1388,
      "æ¶Ī": 1389,
      "é¡¿": 1390,
      "åģļ": 1391,
      "am": 1392,
      "å¤ı": 1393,
      "è¯Ńè¨Ģ": 1394,
      "and": 1395,
      "è´¥": 1396,
      "åĲ«": 1397,
      "æ¥¼": 1398,
      "å¾·åĽ½": 1399,
      "çŃĸ": 1400,
      "æĬĢæľ¯": 1401,
      "-{": 1402,
      "åĽ½æ°ĳ": 1403,
      "èĪ¬": 1404,
      "æŃ£å¼ı": 1405,
      "è¯»": 1406,
      "ĠG": 1407,
      "å¥ĩ": 1408,
      "ä¹ĭéĹ´": 1409,
      "ç§ĳåŃ¦": 1410,
      "å»ºçŃĳ": 1411,
      "åĢĻ": 1412,
      "å¯Ł": 1413,
      "ä¸½": 1414,
      "æĸŃ": 1415,
      "195": 1416,
      "çīĻ": 1417,
      "ç®Ģ": 1418,
      "il": 1419,
      "æł¹æį®": 1420,
      "äººçļĦ": 1421,
      "æľĽ": 1422,
      "éĤ¦": 1423,
      "æ£®": 1424,
      "ç¥ĸ": 1425,
      "24": 1426,
      "é¹": 1427,
      "æ¤": 1428,
      "å®Ī": 1429,
      "èĻ½": 1430,
      "ä¾ĭå¦Ĥ": 1431,
      "ç»Ĩ": 1432,
      "èĥľ": 1433,
      "è´£": 1434,
      "è¯Ĺ": 1435,
      "ç®¡çĲĨ": 1436,
      "è´Ł": 1437,
      "åŁĥ": 1438,
      "Ġ198": 1439,
      "éĢĿä¸ĸ": 1440,
      "åĨµ": 1441,
      "éĩĬ": 1442,
      "ä¹Łæĺ¯": 1443,
      "éļ¾": 1444,
      "è®¡åĪĴ": 1445,
      "as": 1446,
      "çĨ": 1447,
      "å°ģ": 1448,
      "ĠE": 1449,
      "æĭħ": 1450,
      "ä¸Ģç§į": 1451,
      "åºı": 1452,
      "éģĹ": 1453,
      "çħ§": 1454,
      "è¡Ĺ": 1455,
      "ä¸¥": 1456,
      "us": 1457,
      "æĺ¥": 1458,
      "æ´»åĬ¨": 1459,
      "æĹħ": 1460,
      "æĵ": 1461,
      "æĪ·": 1462,
      "æ³°": 1463,
      "æĸ¹éĿ¢": 1464,
      "åºķ": 1465,
      "çł´": 1466,
      "ãĢĭãĢģ": 1467,
      "èĪ°": 1468,
      "ä¼ļè®®": 1469,
      "åĲİæĿ¥": 1470,
      "å·²ç»ı": 1471,
      "ĠF": 1472,
      "ç´¢": 1473,
      "om": 1474,
      "åĲ´": 1475,
      "èģĶåĲĪ": 1476,
      "åºĨ": 1477,
      "Ġï¼Ī": 1478,
      "èİ±": 1479,
      "æİĪ": 1480,
      "ä¸ģ": 1481,
      "æī§": 1482,
      "ç¥¨": 1483,
      "åºĵ": 1484,
      "ac": 1485,
      "æ°¸": 1486,
      "ing": 1487,
      "å§Ĩ": 1488,
      "ed": 1489,
      "ç»Ŀ": 1490,
      "æģ¯": 1491,
      "éĻĦ": 1492,
      "åı¶": 1493,
      "28": 1494,
      "åĶ±": 1495,
      "æĸĹ": 1496,
      "çªģ": 1497,
      "åİĭ": 1498,
      "ent": 1499,
      "æĶ¯æĮģ": 1500,
      "å®Ŀ": 1501,
      "ãģ": 1502,
      "äººæ°ĳåħ±åĴĮåĽ½": 1503,
      "ç¤¼": 1504,
      "ä¸¹": 1505,
      "éĹ»": 1506,
      "ä¹Į": 1507,
      "ĠW": 1508,
      "ä¹ł": 1509,
      "åĲĽ": 1510,
      "å»¶": 1511,
      "ç¯": 1512,
      "äºĭä»¶": 1513,
      "ãĤ": 1514,
      "æľŁéĹ´": 1515,
      "æ¬§æ´²": 1516,
      "æĭ¥": 1517,
      "é²ľ": 1518,
      "è¿ª": 1519,
      "è¯ĳ": 1520,
      "æľĢåĲİ": 1521,
      "å½Ĵ": 1522,
      "å¼¹": 1523,
      "193": 1524,
      "åħ¬éĩĮ": 1525,
      "èĥ¡": 1526,
      "èĩªçĶ±": 1527,
      "ä¸ĢèĪ¬": 1528,
      "ur": 1529,
      "éĿ©åĳ½": 1530,
      "ä¼¼": 1531,
      "äº¿": 1532,
      "27": 1533,
      "çļĦäºº": 1534,
      "å·¦": 1535,
      "å¼Ĥ": 1536,
      "å¤§éĻĨ": 1537,
      "äº§çĶŁ": 1538,
      "ä¼ĺ": 1539,
      "æıĲä¾Ľ": 1540,
      "æģ©": 1541,
      "å¿«": 1542,
      "é¢Ħ": 1543,
      "26": 1544,
      "Ġå¤ĸ": 1545,
      "ĠN": 1546,
      "æ°ĳæĹı": 1547,
      "ig": 1548,
      "æĲ": 1549,
      "çĳŀ": 1550,
      "ä½Ĩæĺ¯": 1551,
      "åŃ¦çĶŁ": 1552,
      "éº¦": 1553,
      "è¾ĸ": 1554,
      "æĹ§": 1555,
      "Ġä¸ŃåĽ½": 1556,
      "çĭ¬ç«ĭ": 1557,
      "éĽĦ": 1558,
      "å·¥ä¸ļ": 1559,
      "å°±æĺ¯": 1560,
      "æ¾³": 1561,
      "ä¸´": 1562,
      "ä¸Ńåįİäººæ°ĳåħ±åĴĮåĽ½": 1563,
      "èĭ¥": 1564,
      "åŃĺåľ¨": 1565,
      "ä¸Ĭæµ·": 1566,
      "éĢĢ": 1567,
      "æĸĩçĮ®": 1568,
      "èį¯": 1569,
      "å¾®": 1570,
      "è¯·": 1571,
      "Ġ18": 1572,
      "åĿ¦": 1573,
      "æĿ¨": 1574,
      "ãĢĭãĢģãĢĬ": 1575,
      "éĩİ": 1576,
      "çĶ²": 1577,
      "åį´": 1578,
      "èĪ¹": 1579,
      "ç¬¬ä¸ī": 1580,
      "éĺ¶": 1581,
      "æĹ¶ä»£": 1582,
      "æ¯Ľ": 1583,
      "æ¸¸æĪı": 1584,
      "æĭ¿": 1585,
      "æ°ĳä¸»": 1586,
      "æľ«": 1587,
      "åľ°æĸ¹": 1588,
      "åģľ": 1589,
      "èį£": 1590,
      "ä¸Ńåįİæ°ĳåĽ½": 1591,
      "åĤ": 1592,
      "un": 1593,
      "çģµ": 1594,
      "èĩ£": 1595,
      "æ²¹": 1596,
      "é½": 1597,
      "å½¢æĪĲ": 1598,
      "éĢĲ": 1599,
      "000": 1600,
      "çķ¥": 1601,
      "ç½Ĺæĸ¯": 1602,
      "ç½Ĺé©¬": 1603,
      "çĩ": 1604,
      "å²¸": 1605,
      "âĢĵ": 1606,
      "å¯¹äºİ": 1607,
      "æ¼Ķåĳĺ": 1608,
      "éļĨ": 1609,
      "æĪĲåĳĺ": 1610,
      "åĪ¤": 1611,
      "åĨ³å®ļ": 1612,
      "ä¸¤ä¸ª": 1613,
      "é¼": 1614,
      "ãĥ»": 1615,
      "çĽĳ": 1616,
      "åĺī": 1617,
      "æľĢé«ĺ": 1618,
      "èīºæľ¯": 1619,
      "è¾ĳ": 1620,
      "çĶļ": 1621,
      "èŃ": 1622,
      "ä¹ħ": 1623,
      "çİ°ä»£": 1624,
      "æľįåĬ¡": 1625,
      "äººçī©": 1626,
      "æ³½": 1627,
      "åł¡": 1628,
      "çłģ": 1629,
      "åĪĩ": 1630,
      "éĽħ": 1631,
      "ä½³": 1632,
      "é¡»": 1633,
      "è´µ": 1634,
      "éĢļå¸¸": 1635,
      "29": 1636,
      "æıĲåĩº": 1637,
      "ï¼ļâĢľ": 1638,
      "ç±į": 1639,
      "èĻ½çĦ¶": 1640,
      "æĿ¾": 1641,
      "åĪ©äºļ": 1642,
      "è¿Ļç§į": 1643,
      "æĹĹ": 1644,
      "ä¸°": 1645,
      "è¯¸": 1646,
      "æĸ¹å¼ı": 1647,
      "æį¢": 1648,
      "çīĮ": 1649,
      "èĵ": 1650,
      "ä¸ºäºĨ": 1651,
      "è¡Ģ": 1652,
      "60": 1653,
      "åı³": 1654,
      "èµĦæĸĻ": 1655,
      "çĶŁäº§": 1656,
      "æĭ¥æľī": 1657,
      "éľĢè¦ģ": 1658,
      "åĽ½çİĭ": 1659,
      "Ġå¤§": 1660,
      "æľĹ": 1661,
      "éħĴ": 1662,
      "æŀ¶": 1663,
      "çĽ¸åħ³": 1664,
      "ç£": 1665,
      "æĿĤ": 1666,
      "èĽ": 1667,
      "Ġå¤ĸéĥ¨": 1668,
      "äºĴ": 1669,
      "èŃ¦": 1670,
      "è´¢": 1671,
      "çĶŁæ´»": 1672,
      "åĨ²": 1673,
      "è¾ĵ": 1674,
      "éĥ¡": 1675,
      "å¯º": 1676,
      "åıĹåĪ°": 1677,
      "é±": 1678,
      "ä¸»å¸Ń": 1679,
      "è¿Ľåħ¥": 1680,
      "æ¢ħ": 1681,
      "å°½": 1682,
      "äº¤éĢļ": 1683,
      "åĨĽäºĭ": 1684,
      "çĲĨè®º": 1685,
      "å®ª": 1686,
      "è¿ģ": 1687,
      "Ġthe": 1688,
      "ç»ĦæĪĲ": 1689,
      "å¼Ł": 1690,
      "æĿŁ": 1691,
      "æĪ¿": 1692,
      "æ¸Ĳ": 1693,
      "é±¼": 1694,
      "æĳ©": 1695,
      "æīĢä»¥": 1696,
      "è½¯": 1697,
      "èī¯": 1698,
      "åį·": 1699,
      "æĸĩåŃ¦": 1700,
      "ç½²": 1701,
      "æ¤į": 1702,
      "åħį": 1703,
      "é¢Ĩå¯¼": 1704,
      "åºŃ": 1705,
      "é©»": 1706,
      "æĻĭ": 1707,
      "èįī": 1708,
      "ä¼łç»Ł": 1709,
      "åĩı": 1710,
      "èŀ": 1711,
      "å·®": 1712,
      "åı°åĮĹ": 1713,
      "ãĢĤâĢĿ": 1714,
      "æĿ°": 1715,
      "åĲįä¸º": 1716,
      "æľ±": 1717,
      "çļ®": 1718,
      "çĪĨ": 1719,
      "åį°åº¦": 1720,
      "ï¼Īï¼ī": 1721,
      "åĨł": 1722,
      "æ¿": 1723,
      "åħ±äº§": 1724,
      "è¦ģæ±Ĥ": 1725,
      "éģŃ": 1726,
      "åĪĨåĪ«": 1727,
      "æ¯Ĵ": 1728,
      "æĿĲ": 1729,
      "æłĳ": 1730,
      "çĽĽ": 1731,
      "ä»ĭ": 1732,
      "åĸĦ": 1733,
      "èµ°": 1734,
      "ç¬¦": 1735,
      "è½»": 1736,
      "çĽ®åīį": 1737,
      "ç§¦": 1738,
      "èİ«": 1739,
      "40": 1740,
      "èĭıèģĶ": 1741,
      "åħ·æľī": 1742,
      "åİĤ": 1743,
      "èĩªçĦ¶": 1744,
      "å©ļ": 1745,
      "çī¹åĪ«": 1746,
      "å¢ŀåĬł": 1747,
      "çİĽ": 1748,
      "çŁŃ": 1749,
      "éĢģ": 1750,
      "æī©": 1751,
      "æĪĲåĬŁ": 1752,
      "çļĦå¤§": 1753,
      "å®£å¸ĥ": 1754,
      "é¢ĳ": 1755,
      "å½¹": 1756,
      "åĲ¯": 1757,
      "åºĹ": 1758,
      "ãĢĢ": 1759,
      "æ¢ģ": 1760,
      "å¯¼èĩ´": 1761,
      "æĥħåĨµ": 1762,
      "ç«¯": 1763,
      "ä¼¤": 1764,
      "è®¯": 1765,
      "ä¿ĿæĬ¤": 1766,
      "åĬ³": 1767,
      "èµ«": 1768,
      "ä¸Ńåħ±": 1769,
      "éħ¸": 1770,
      "é¡º": 1771,
      "å°ļ": 1772,
      "å¹¶ä¸Ķ": 1773,
      "ç§Ģ": 1774,
      "Ġ197": 1775,
      "èĤ¡": 1776,
      "æķ£": 1777,
      "çĥĪ": 1778,
      "ä¹±": 1779,
      "çĶ¨äºİ": 1780,
      "è¿Ļä¸Ģ": 1781,
      "åģĩ": 1782,
      "æĸ¹æ³ķ": 1783,
      "æİ§åĪ¶": 1784,
      "èµµ": 1785,
      "çŃ¾": 1786,
      "éĢłæĪĲ": 1787,
      "èĢ¶": 1788,
      "çĶŁçī©": 1789,
      "å¾ĹåĪ°": 1790,
      "å°¼äºļ": 1791,
      "é½Ĳ": 1792,
      "è°·": 1793,
      "æľºæŀĦ": 1794,
      "iv": 1795,
      "çİī": 1796,
      "åª": 1797,
      "ï¼ļãĢĮ": 1798,
      "æĻļ": 1799,
      "çļĦæĺ¯": 1800,
      "åħ»": 1801,
      "é¥°": 1802,
      "ä»ģ": 1803,
      "ç³»åĪĹ": 1804,
      "çļĩå¸Ŀ": 1805,
      "äººç±»": 1806,
      "éĥ½æĺ¯": 1807,
      "æĺĮ": 1808,
      "èĳĹåĲį": 1809,
      "ä¼ģ": 1810,
      "çĶµåŃĲ": 1811,
      "æĭħä»»": 1812,
      "ç»ĵæŀĦ": 1813,
      "å®³": 1814,
      "ation": 1815,
      "éĶĢ": 1816,
      "å»·": 1817,
      "å¾Ĵ": 1818,
      "æľĢç»Ī": 1819,
      "ä¸ŃåŃ¦": 1820,
      "çģŃ": 1821,
      "æľĿé²ľ": 1822,
      "éĻµ": 1823,
      "å±ŀäºİ": 1824,
      "æ²¿": 1825,
      "èľ": 1826,
      "åįķä½į": 1827,
      "å¼Ĺ": 1828,
      "å¼Ģåıĳ": 1829,
      "é»İ": 1830,
      "èĪªç©º": 1831,
      "ä¸įæĺ¯": 1832,
      "Ġand": 1833,
      "æºª": 1834,
      "è´§": 1835,
      "ĠåıĤèĢĥæĸĩçĮ®": 1836,
      "ad": 1837,
      "éĢīä¸¾": 1838,
      "éĥĳ": 1839,
      "çīĽ": 1840,
      "ç»Łæ²»": 1841,
      "åĬ¨çī©": 1842,
      "han": 1843,
      "ä¹ĺ": 1844,
      "è½¨": 1845,
      "èį·": 1846,
      "ut": 1847,
      "ä»Ģ": 1848,
      "å®ĹæķĻ": 1849,
      "åıªæľī": 1850,
      "ç¦ģ": 1851,
      "ä»ª": 1852,
      "ãĢĭãĢĤ": 1853,
      "éĢĤ": 1854,
      "ĠJ": 1855,
      "æŁĲ": 1856,
      "Ġ3": 1857,
      "ĠO": 1858,
      "äºĮåįģ": 1859,
      "çĽĬ": 1860,
      "è®¡ç®Ĺ": 1861,
      "èĶ": 1862,
      "åĪ¶ä½ľ": 1863,
      "åħ¼": 1864,
      "ä¸¾è¡Į": 1865,
      "å¤Ł": 1866,
      "åŁºæľ¬": 1867,
      "çĦ¶èĢĮ": 1868,
      "è¿ĺæľī": 1869,
      "éĿ¢ç§¯": 1870,
      "åĵ²": 1871,
      "å®ĮæĪĲ": 1872,
      "æĿ¥èĩª": 1873,
      "æ¦Ĥ": 1874,
      "å°¾": 1875,
      "ä¹Łæľī": 1876,
      "è®²": 1877,
      "èı²": 1878,
      "æłĩåĩĨ": 1879,
      "æİ¢": 1880,
      "ä»»ä½ķ": 1881,
      "ow": 1882,
      "å¦Ĥæŀľ": 1883,
      "èĦĳ": 1884,
      "éŁ©åĽ½": 1885,
      "æ°§": 1886,
      "éĻ©": 1887,
      "åºĦ": 1888,
      "çº½": 1889,
      "è·Ŀ": 1890,
      "è¿ĩç¨ĭ": 1891,
      "æĻº": 1892,
      "å°ıè¯´": 1893,
      "æĶ¿çŃĸ": 1894,
      "èª": 1895,
      "åĸľ": 1896,
      "um": 1897,
      "ç»ĵæĿŁ": 1898,
      "æ´¥": 1899,
      "ä¸įè¿ĩ": 1900,
      "äºĪ": 1901,
      "è½®": 1902,
      "èī¾": 1903,
      "ç¯ĩ": 1904,
      "å¤§éĩı": 1905,
      "åªĴ": 1906,
      "æľºåľº": 1907,
      "æĿ¥çļĦ": 1908,
      "çī©çĲĨ": 1909,
      "ers": 1910,
      "æĺ¯åľ¨": 1911,
      "è°Ī": 1912,
      "ä¿Ħç½Ĺæĸ¯": 1913,
      "æĳĦ": 1914,
      "èĴĤ": 1915,
      "æĮī": 1916,
      "80": 1917,
      "è¿½": 1918,
      "åĲ¦": 1919,
      "åĽº": 1920,
      "ç½ª": 1921,
      "Ġ9": 1922,
      "Ġ1": 1923,
      "å¹´éĢĿä¸ĸ": 1924,
      "åıįå¯¹": 1925,
      "èĥĮ": 1926,
      "ç§ģ": 1927,
      "åĲ¸": 1928,
      "æĹłæ³ķ": 1929,
      "Ġd": 1930,
      "è¶ħè¿ĩ": 1931,
      "å¤ļæķ°": 1932,
      "åĪĨä¸º": 1933,
      "èĸ": 1934,
      "å¹´åĩºçĶŁ": 1935,
      "èĬĤçĽ®": 1936,
      "éĿŀå¸¸": 1937,
      "è®¿": 1938,
      "æĴ¤": 1939,
      "åħ¬åĽŃ": 1940,
      "ĠK": 1941,
      "æŀª": 1942,
      "èĪŀ": 1943,
      "åľĨ": 1944,
      "ĠV": 1945,
      "Ġp": 1946,
      "éĢı": 1947,
      "éĵ¾": 1948,
      "å¸ģ": 1949,
      "æıı": 1950,
      "æĭľ": 1951,
      "éĴŁ": 1952,
      "å³°": 1953,
      "éĻ¤äºĨ": 1954,
      "åĶ®": 1955,
      "ag": 1956,
      "æĵį": 1957,
      "åıĤä¸İ": 1958,
      "ä¸ĢçĽ´": 1959,
      "çİ°åľ¨": 1960,
      "åĲĪä½ľ": 1961,
      "å½¢å¼ı": 1962,
      "ç¡Ģ": 1963,
      "åĬłåħ¥": 1964,
      "çĶļèĩ³": 1965,
      "åºŁ": 1966,
      "æ¬¾": 1967,
      "åĨĽéĺŁ": 1968,
      "è´Łè´£": 1969,
      "åĲĮå¹´": 1970,
      "åŁºç¡Ģ": 1971,
      "èħĬ": 1972,
      "çĽĸ": 1973,
      "ãĢįï¼Ī": 1974,
      "ç»ĵæŀľ": 1975,
      "od": 1976,
      "æĸ¯çī¹": 1977,
      "æĮ¥": 1978,
      "å®¾": 1979,
      "åĮĸåŃ¦": 1980,
      "åı¦å¤ĸ": 1981,
      "çİ¯å¢ĥ": 1982,
      "åıĤåĬł": 1983,
      "å®¡": 1984,
      "ï¼ĮãĢĬ": 1985,
      "åĶ¯": 1986,
      "æľīåħ³": 1987,
      "åħ±äº§åħļ": 1988,
      "è®¨": 1989,
      "op": 1990,
      "éĩĩçĶ¨": 1991,
      "æĢ§çļĦ": 1992,
      "ç§ĭ": 1993,
      "åıĳè¡¨": 1994,
      "70": 1995,
      "æ£Ģ": 1996,
      "åĪ°äºĨ": 1997,
      "æĸ°éĹ»": 1998,
      "ä¸įèĥ½": 1999,
      "æ®ĸ": 2000,
      "è¡¥": 2001,
      "æİ¥åıĹ": 2002,
      "æĿ¿": 2003,
      "éŃı": 2004,
      "Ġf": 2005,
      "ä¹İ": 2006,
      "çºªå¿µ": 2007,
      "çĽ´æİ¥": 2008,
      "å¤ĦçĲĨ": 2009,
      "è´Ń": 2010,
      "å®ĩ": 2011,
      "æı´": 2012,
      "åį¢": 2013,
      "100": 2014,
      "æ±ĩ": 2015,
      "æ¯ķ": 2016,
      "éĽĨåĽ¢": 2017,
      "çĪµ": 2018,
      "th": 2019,
      "é¡¶": 2020,
      "ï¼īï¼ļ": 2021,
      "åħ¬è·¯": 2022,
      "å»ºè®¾": 2023,
      "æĽ¹": 2024,
      "ç«¥": 2025,
      "ct": 2026,
      "æŃ¤å¤ĸ": 2027,
      "ä¾µ": 2028,
      "åĪĬ": 2029,
      "å®ļä¹ī": 2030,
      "os": 2031,
      "æ¿Ģ": 2032,
      "é¸Ł": 2033,
      "ä¹Ī": 2034,
      "åĪ»": 2035,
      "åĪ¶åº¦": 2036,
      "æ³ķå¾ĭ": 2037,
      "æł¼åħ°": 2038,
      "åİħ": 2039,
      "çļĨ": 2040,
      "å¤§åĪ©": 2041,
      "åħĥç´ł": 2042,
      "æĿľ": 2043,
      "åıįåºĶ": 2044,
      "èģĶçĽŁ": 2045,
      "Ġb": 2046,
      "æĪĳä»¬": 2047,
      "èĢ³": 2048,
      "im": 2049,
      "æļ´": 2050,
      "åĩ¯": 2051,
      "ç¿°": 2052,
      "å·¨": 2053,
      "æĢĢ": 2054,
      "è¡Įä¸º": 2055,
      "äºĨä¸Ģ": 2056,
      "éĺ´": 2057,
      "è®¢": 2058,
      "åĮºåŁŁ": 2059,
      "å®ŀéĻħ": 2060,
      "æŁĵ": 2061,
      "éĵ¶è¡Į": 2062,
      "åĳ¼": 2063,
      "Ġ194": 2064,
      "å¤ľ": 2065,
      "ä½ľçĶ¨": 2066,
      "éĴ±": 2067,
      "æ³Ľ": 2068,
      "åĿĢ": 2069,
      "åħħ": 2070,
      "å®Įåħ¨": 2071,
      "è¿Ļæĺ¯": 2072,
      "åĨħå®¹": 2073,
      "ay": 2074,
      "èĩªå·±çļĦ": 2075,
      "ç¿»": 2076,
      "å¿ħé¡»": 2077,
      "å¤º": 2078,
      "Ġé¦Ļæ¸¯": 2079,
      "Ġs": 2080,
      "ç§ĺ": 2081,
      "..": 2082,
      "çĸĹ": 2083,
      "èĴĭ": 2084,
      "ia": 2085,
      "ul": 2086,
      "ç¼º": 2087,
      "åıĳè¡Į": 2088,
      "å§ĵ": 2089,
      "èĥŀ": 2090,
      "å½ĵåľ°": 2091,
      "ä¸ĩäºº": 2092,
      "31": 2093,
      "å¾Ĳ": 2094,
      "åħ³äºİ": 2095,
      "è§ī": 2096,
      "åĿļ": 2097,
      "ç«¹": 2098,
      "èĮ¶": 2099,
      "æ¬¢": 2100,
      "Ġæĸ°": 2101,
      "å¿ł": 2102,
      "å®ŀéªĮ": 2103,
      "ãĢĤãĢį": 2104,
      "ä¾§": 2105,
      "è¿«": 2106,
      "æķ¦": 2107,
      "èĦ±": 2108,
      "ä¾¯": 2109,
      "âĶ": 2110,
      "ä¸Ńæĸĩ": 2111,
      "èĴĻåı¤": 2112,
      "åŁºçĿ£": 2113,
      "éĢĶ": 2114,
      "ir": 2115,
      "åĢŁ": 2116,
      "èŀį": 2117,
      "è®¾ç«ĭ": 2118,
      "èĵĿ": 2119,
      "Ġc": 2120,
      "æ´ª": 2121,
      "æĢĿæĥ³": 2122,
      "æ¼«": 2123,
      "Ġ4": 2124,
      "èģļ": 2125,
      "åŃ¦èĢħ": 2126,
      "em": 2127,
      "çŁ¿": 2128,
      "åĨħçļĦ": 2129,
      "âĢ¦": 2130,
      "ä¸ºä¸»": 2131,
      "å®ļçļĦ": 2132,
      "è¯¾": 2133,
      "çİĭæľĿ": 2134,
      "æĶ¹éĿ©": 2135,
      "å°¤": 2136,
      "æ½®": 2137,
      "çİĭåĽ½": 2138,
      "æŃĮæīĭ": 2139,
      "ä¹Ķ": 2140,
      "åįĹäº¬": 2141,
      "æ··": 2142,
      "åħ¹": 2143,
      "Ġ196": 2144,
      "ç»§ç»Ń": 2145,
      "éĽª": 2146,
      "å®ĥä»¬": 2147,
      "Ġin": 2148,
      "ç»ľ": 2149,
      "Ġ2": 2150,
      "æľīéĻĲ": 2151,
      "åı¬": 2152,
      "ä¼ģä¸ļ": 2153,
      "å±ĭ": 2154,
      "ä¸»æķĻ": 2155,
      "åħ¨çĲĥ": 2156,
      "äºļæ´²": 2157,
      "è´¸": 2158,
      "å¾Īå¤ļ": 2159,
      "æķ°æį®": 2160,
      "å¸Ĥåľº": 2161,
      "åķĨä¸ļ": 2162,
      "æŀĲ": 2163,
      "æµ·åĨĽ": 2164,
      "éĥİ": 2165,
      "æľĢä½³": 2166,
      "å¾Ħ": 2167,
      "éĺµ": 2168,
      "ä¹ĭåīį": 2169,
      "è¥¿äºļ": 2170,
      "ç»ıè¿ĩ": 2171,
      "å¤ªéĺ³": 2172,
      "åºĻ": 2173,
      "å¸ĮèħĬ": 2174,
      "éĽ¨": 2175,
      "äººåĳĺ": 2176,
      "Ġç¬¬": 2177,
      "æĬµ": 2178,
      "ç©Ĩ": 2179,
      "å®ĺæĸ¹": 2180,
      "æķĮ": 2181,
      "ä¸ªäºº": 2182,
      "ĠåıĤè§ģ": 2183,
      "190": 2184,
      "èªī": 2185,
      "åĲĦç§į": 2186,
      "åįģäºĮ": 2187,
      "å¤§ä¼ļ": 2188,
      "2000": 2189,
      "è°ĭ": 2190,
      "æĦ¿": 2191,
      "åĪ©çĶ¨": 2192,
      "ĠU": 2193,
      "æĹ©æľŁ": 2194,
      "æĥł": 2195,
      "æģĴ": 2196,
      "ist": 2197,
      "åĽ½ç«ĭ": 2198,
      "è®Ń": 2199,
      "ä½ľå®¶": 2200,
      "ç«ŀ": 2201,
      "ap": 2202,
      "æķĳ": 2203,
      "å¹³æĸ¹": 2204,
      "è´¡": 2205,
      "ç»Łä¸Ģ": 2206,
      "ä¸ľåĮĹ": 2207,
      "è§Ħæ¨¡": 2208,
      "æķħäºĭ": 2209,
      "Ġ195": 2210,
      "åĲİçļĦ": 2211,
      "å¹³åĿĩ": 2212,
      "å¥³æĢ§": 2213,
      "ä½¿å¾Ĺ": 2214,
      "çĬ¯": 2215,
      "ot": 2216,
      "åĬ¨çĶ»": 2217,
      "åºĶçĶ¨": 2218,
      "æĺł": 2219,
      "æĸ°çļĦ": 2220,
      "åĿ¡": 2221,
      "éĥ¨éĺŁ": 2222,
      "åĪĳ": 2223,
      "æ±Ĺ": 2224,
      "èģĶéĤ¦": 2225,
      "ä¸»æĮģ": 2226,
      "ç»¿": 2227,
      "åľ°ä½į": 2228,
      "è°¢": 2229,
      "åģ¥": 2230,
      "èĮĥåĽ´": 2231,
      "èĩªæ²»": 2232,
      "æ¥ļ": 2233,
      "æĺ¯ä¸Ģ": 2234,
      "78": 2235,
      "èĨ": 2236,
      "35": 2237,
      "å¹ķ": 2238,
      "ç»ĥ": 2239,
      "çīĪæľ¬": 2240,
      "é¦ĸæ¬¡": 2241,
      "ä¿Ĺ": 2242,
      "90": 2243,
      "éģĩ": 2244,
      "||": 2245,
      "å¸ķ": 2246,
      "æŁı": 2247,
      "è¥¿çıŃ": 2248,
      "çĬ¹": 2249,
      "éĢĲæ¸Ĳ": 2250,
      "éģ¿": 2251,
      "ç«ĭæ³ķ": 2252,
      "åĪº": 2253,
      "æĸ¯åĿ¦": 2254,
      "ä¸ĭçļĦ": 2255,
      "è¥¿çıŃçīĻ": 2256,
      "éĩįæĸ°": 2257,
      "æĶ¹ä¸º": 2258,
      "çĲ´": 2259,
      "èĤī": 2260,
      "ter": 2261,
      "æľīä¸Ģ": 2262,
      "åĪ¶éĢł": 2263,
      "ä½ł": 2264,
      "åĳ³": 2265,
      "åŁ¹": 2266,
      "çº¸": 2267,
      "é¢Ŀ": 2268,
      "è¿ŀç»ĵ": 2269,
      "èĢĮä¸Ķ": 2270,
      "ä¸įåĲĮçļĦ": 2271,
      "å¥ī": 2272,
      "éĵľ": 2273,
      "æ¢¦": 2274,
      "åıĸå¾Ĺ": 2275,
      "å«": 2276,
      "å¾ħ": 2277,
      "èĥ½å¤Ł": 2278,
      "éĴĪ": 2279,
      "æķĻæİĪ": 2280,
      "æŃ»äº¡": 2281,
      "og": 2282,
      "é¡¾": 2283,
      "æī§è¡Į": 2284,
      "å°ĨåĨĽ": 2285,
      "ç¹": 2286,
      "éĢĥ": 2287,
      "%ï¼Į": 2288,
      "çº¦ç¿°": 2289,
      "è¿Ķ": 2290,
      "ĠThe": 2291,
      "çĤ¸": 2292,
      "åı¥": 2293,
      "çĽ¸å½ĵ": 2294,
      "å®īåħ¨": 2295,
      "è®®ä¼ļ": 2296,
      "åĲ¬": 2297,
      "éľį": 2298,
      "éĥ¨çļĦ": 2299,
      "æģ¶": 2300,
      "Ġm": 2301,
      "åį±": 2302,
      "Ġ5": 2303,
      "å¦»": 2304,
      "åĩ½": 2305,
      "è¯¯": 2306,
      "æ±½": 2307,
      "SB": 2308,
      "ç©ºéĹ´": 2309,
      "åĪļ": 2310,
      "åĪĨå¸ĥ": 2311,
      "åľ°çĲĥ": 2312,
      "æ³ī": 2313,
      "å¹¿æĴŃ": 2314,
      "è§Ĵèī²": 2315,
      "è®°è½½": 2316,
      "é¢ģ": 2317,
      "æĭį": 2318,
      "å¥ı": 2319,
      "æ¤įçī©": 2320,
      "å²©": 2321,
      "%ãĢĤ": 2322,
      "åĨ·": 2323,
      "éķľ": 2324,
      "éŃĶ": 2325,
      "ãĢī": 2326,
      "åįļçī©": 2327,
      "åĬŁèĥ½": 2328,
      "ä¸Ģä¸ĸ": 2329,
      "ãĢĪ": 2330,
      "ä¼ĳ": 2331,
      "ç¹ģ": 2332,
      "è¡ĮæĶ¿åĮº": 2333,
      "åĲįç§°": 2334,
      "éļ¶": 2335,
      "è¿Ļæł·": 2336,
      "æ¯Ķè¾ĥ": 2337,
      "åĮħåĲ«": 2338,
      "å¹¶ä¸į": 2339,
      "ç¬¬ä¸Ģæ¬¡": 2340,
      "è¿¹": 2341,
      "æ¯ģ": 2342,
      "å¸®": 2343,
      "åŃĶ": 2344,
      "å®ľ": 2345,
      "æĺ¯ä¸Ģä¸ª": 2346,
      "ç¼©": 2347,
      "ä¸ŃåĽ½å¤§éĻĨ": 2348,
      "å¥´": 2349,
      "èĥ½åĬĽ": 2350,
      "ç¬Ķ": 2351,
      "åħ±åĲĮ": 2352,
      "æĭ©": 2353,
      "è·Ł": 2354,
      "ĠåİĨåı²": 2355,
      "Ġä¸Ń": 2356,
      "åĽ¢ä½ĵ": 2357,
      "2005": 2358,
      "åªĴä½ĵ": 2359,
      "æ¸¡": 2360,
      "åı¦ä¸Ģ": 2361,
      "çĽ´åĪ°": 2362,
      "éĺģ": 2363,
      "éľĩ": 2364,
      "å¹¿ä¸ľ": 2365,
      "éĨ": 2366,
      "ç»Ĩèĥŀ": 2367,
      "Ġç¾İåĽ½": 2368,
      "å»ī": 2369,
      "è¢Ń": 2370,
      "å´ĩ": 2371,
      "çıł": 2372,
      "éĺ¿æĭī": 2373,
      "å°Ĭ": 2374,
      "çľ¼": 2375,
      "64": 2376,
      "å°º": 2377,
      "è£ģ": 2378,
      "è¾½": 2379,
      "ç¨³": 2380,
      "æĺ¾ç¤º": 2381,
      "æĪĸèĢħ": 2382,
      "2004": 2383,
      "åıĺåĮĸ": 2384,
      "çĹĩ": 2385,
      "è¡ĮåĬ¨": 2386,
      "å¢¨": 2387,
      "å¢ĵ": 2388,
      "å¹´èĩ³": 2389,
      "æī¬": 2390,
      "éľ²": 2391,
      "åĪĨåŃĲ": 2392,
      "ï¼Ł": 2393,
      "äºĮä¸ĸ": 2394,
      "è¢«ç§°ä¸º": 2395,
      "æ¨ª": 2396,
      "ĠSt": 2397,
      "ess": 2398,
      "åĩºçļĦ": 2399,
      "èĻİ": 2400,
      "ä¹ĭéĹ´çļĦ": 2401,
      "çĤ®": 2402,
      "ä¸ľäº¬": 2403,
      "è®®åĳĺ": 2404,
      "æķ°åŃ¦": 2405,
      "èµŀ": 2406,
      "æľĢæĹ©": 2407,
      "å®½": 2408,
      "éĩĳå±ŀ": 2409,
      "ä¸Ŀ": 2410,
      "äºķ": 2411,
      "åľ°çĲĨ": 2412,
      "æĪ´": 2413,
      "Ġ7": 2414,
      "æĮĩæĮ¥": 2415,
      "åħĦ": 2416,
      "ae": 2417,
      "äº§åĵģ": 2418,
      "ç¾İåħĥ": 2419,
      "éª¨": 2420,
      "æī¾": 2421,
      "çĪĨåıĳ": 2422,
      "oc": 2423,
      "37": 2424,
      "çĴ": 2425,
      "åĪĹè¡¨": 2426,
      "å¯¿": 2427,
      "æ®¿": 2428,
      "ä»¥æĿ¥": 2429,
      "ç±»ä¼¼": 2430,
      "æĺŃ": 2431,
      "ç§ĳæĬĢ": 2432,
      "æįŁ": 2433,
      "çĸĳ": 2434,
      "å¹¶åľ¨": 2435,
      "åħ¬åħĥ": 2436,
      "ç©¿": 2437,
      "æ²ĥ": 2438,
      "åĶ¯ä¸Ģ": 2439,
      "è¾ħ": 2440,
      "æĽ¿": 2441,
      "è¿İ": 2442,
      "ãĢįãĢģ": 2443,
      "éĿł": 2444,
      "ä¸¥éĩį": 2445,
      "Ġåı°æ¹¾": 2446,
      "èĤ¯": 2447,
      "è§Ħå®ļ": 2448,
      "æįķ": 2449,
      "åĩºçīĪç¤¾": 2450,
      "éĢĬ": 2451,
      "ç´§": 2452,
      "èµĦæºĲ": 2453,
      "çļĦä¸Ģä¸ª": 2454,
      "åĨľä¸ļ": 2455,
      "æİĮ": 2456,
      "èĳ£": 2457,
      "å¤ĸäº¤": 2458,
      "æĺ¯çĶ±": 2459,
      "åĨ°": 2460,
      "åīįå¾Ģ": 2461,
      "å¹¿å·ŀ": 2462,
      "åıĳåĬ¨": 2463,
      "éĵ¾æİ¥": 2464,
      "éĻ¶": 2465,
      "æĿ¡çº¦": 2466,
      "éĺ¿å°Ķ": 2467,
      "éĻĦè¿ĳ": 2468,
      "è¾ŀ": 2469,
      "åĽ½åĬ¡": 2470,
      "ä½ĵèĤ²": 2471,
      "çĪ¶äº²": 2472,
      "è´¸æĺĵ": 2473,
      "åı«": 2474,
      "ç¬¬åĽĽ": 2475,
      "ä»ĸåľ¨": 2476,
      "ä¹¦è®°": 2477,
      "åĿı": 2478,
      "è¾¾åĪ°": 2479,
      "èĦī": 2480,
      "SBN": 2481,
      "ç¨İ": 2482,
      "èĬ¬": 2483,
      "äºİæĺ¯": 2484,
      "å¹´éĹ´": 2485,
      "çī©è´¨": 2486,
      "éĤ»": 2487,
      "åħ¬åħ±": 2488,
      "å¾¡": 2489,
      "2010": 2490,
      "è°ĥæŁ¥": 2491,
      "2006": 2492,
      "éĺ»": 2493,
      "çĶ³": 2494,
      "è£Ĥ": 2495,
      "æ¶²": 2496,
      "å¼ĥ": 2497,
      "2008": 2498,
      "éĩįè¦ģçļĦ": 2499,
      "çĽĺ": 2500,
      "38": 2501,
      "äººä»¬": 2502,
      "æĢ»çĲĨ": 2503,
      "åĬª": 2504,
      "å¥Ĺ": 2505,
      "èµ¤": 2506,
      "åİŁåĽł": 2507,
      "è£Ķ": 2508,
      "âĶĢ": 2509,
      "Ġ||": 2510,
      "æĶ¿æĿĥ": 2511,
      "æ´ŀ": 2512,
      "è¶³çĲĥ": 2513,
      "ĠIn": 2514,
      "éĤĵ": 2515,
      "2007": 2516,
      "è´Ŀå°Ķ": 2517,
      "æĿ¥æºĲ": 2518,
      "Ġå¤ĸéĥ¨è¿ŀç»ĵ": 2519,
      "éĥ¨éķ¿": 2520,
      "é¡¹çĽ®": 2521,
      "æ°§åĮĸ": 2522,
      "ä¸Ģæł·": 2523,
      "ç£ģ": 2524,
      "åĽ¾ä¹¦": 2525,
      "èıľ": 2526,
      "éļĶ": 2527,
      "ç»į": 2528,
      "ä¸ľåįĹ": 2529,
      "éº»": 2530,
      "åĪĽä½ľ": 2531,
      "ç½ĳç«Ļ": 2532,
      "éĢīæĭ©": 2533,
      "ä»¥ä¸Ĭ": 2534,
      "éģį": 2535,
      "ä½įç½®": 2536,
      "æĹĭ": 2537,
      "åŃ¦ä¹ł": 2538,
      "65": 2539,
      "å¤§éĥ¨åĪĨ": 2540,
      "ãĢĤï¼Ī": 2541,
      "ä¼Ĳ": 2542,
      "çĶµè§Ĩåı°": 2543,
      "è¡¡": 2544,
      "æĹ¶åĢĻ": 2545,
      "é¢ĨåŁŁ": 2546,
      "åİŁåŃĲ": 2547,
      "è¯ī": 2548,
      "æľĢå¤§çļĦ": 2549,
      "éĶĻ": 2550,
      "Ġ|-": 2551,
      "éĶ¡": 2552,
      "ä¸Ģæ¬¡": 2553,
      "çĶĺ": 2554,
      "æ¶ī": 2555,
      "èĪį": 2556,
      "ä»įçĦ¶": 2557,
      "äº®": 2558,
      "æĹħæ¸¸": 2559,
      "å¤§æĪĺ": 2560,
      "ri": 2561,
      "å·¡": 2562,
      "èķ": 2563,
      "Ġè¥¿": 2564,
      "è¾Ľ": 2565,
      "åįļçī©é¦Ĩ": 2566,
      "æĦıå¤§åĪ©": 2567,
      "è°ĵ": 2568,
      "33": 2569,
      "è¶ĬåįĹ": 2570,
      "å®ªæ³ķ": 2571,
      "2003": 2572,
      "äº§ä¸ļ": 2573,
      "âĢĿï¼Ī": 2574,
      "èģĶåĲĪåĽ½": 2575,
      "é«ĺéĢŁ": 2576,
      "æ¯ĶèµĽ": 2577,
      "Ġ=": 2578,
      "ĠæĹ¥æľ¬": 2579,
      "åįıä¼ļ": 2580,
      "å¾½": 2581,
      "å²Ń": 2582,
      "ä¹ĥ": 2583,
      "ä¸īä¸ª": 2584,
      "çĽ¸å¯¹": 2585,
      "=\"": 2586,
      "ä½ĽæķĻ": 2587,
      "èĽĭ": 2588,
      "av": 2589,
      "ç¥Ń": 2590,
      "åĨĮ": 2591,
      "æµģè¡Į": 2592,
      "ï¼ĮâĢľ": 2593,
      "ç»¼": 2594,
      "æĢ¥": 2595,
      "åįłé¢Ĩ": 2596,
      "åĩ¤": 2597,
      "åįĪ": 2598,
      "ä¿¡æģ¯": 2599,
      "è§£æĶ¾": 2600,
      "åĴĮå¹³": 2601,
      "çĽ¸åĲĮ": 2602,
      "ab": 2603,
      "èĭ±è¯Ń": 2604,
      "çļĦä¸»è¦ģ": 2605,
      "æĸĩåŃĹ": 2606,
      "æģ¢": 2607,
      "åĿĹ": 2608,
      "è¡°": 2609,
      "å¨ľ": 2610,
      "ä»¥ä¸ĭ": 2611,
      "ï½": 2612,
      "æĶ¹åıĺ": 2613,
      "åĪĨæŀĲ": 2614,
      "Âł": 2615,
      "ä½ĵçļĦ": 2616,
      "éĽ¶": 2617,
      "åīĳ": 2618,
      "æ±ł": 2619,
      "ä¸Ģèµ·": 2620,
      "Ġå¤ĸéĥ¨éĵ¾æİ¥": 2621,
      "ce": 2622,
      "åĮ»éĻ¢": 2623,
      "å¢ŀéķ¿": 2624,
      "å¼ĢæĶ¾": 2625,
      "åĪĹè½¦": 2626,
      "ä¸ĵä¸ļ": 2627,
      "æį·": 2628,
      "å½©": 2629,
      "åĲķ": 2630,
      "æııè¿°": 2631,
      "æĭĽ": 2632,
      "ä¸ĺ": 2633,
      "æ®ĸæ°ĳ": 2634,
      "çĽĲ": 2635,
      "åħĭæĸ¯": 2636,
      "ç½ĳç»ľ": 2637,
      "å¤ªå¹³": 2638,
      ")ï¼Į": 2639,
      "æĭĶ": 2640,
      "åĭĭ": 2641,
      "æĮĩåĩº": 2642,
      "çĩķ": 2643,
      "34": 2644,
      "å¤ļçļĦ": 2645,
      "åĨ¬": 2646,
      "Ġ8": 2647,
      "æģĲ": 2648,
      "è½¦ç«Ļ": 2649,
      "å°ıæĹ¶": 2650,
      "é¢ľ": 2651,
      "åīĤ": 2652,
      "æľĢå¤§": 2653,
      "ï¼ļãĢĬ": 2654,
      "éĺħ": 2655,
      "ç»ĺ": 2656,
      "æĶ»åĩ»": 2657,
      "ä»Ļ": 2658,
      "æ¦Ĥå¿µ": 2659,
      "ä»°": 2660,
      "å®¶åºŃ": 2661,
      "è¡£": 2662,
      "ä¹°": 2663,
      "å¸ĮæľĽ": 2664,
      "çº¯": 2665,
      "å¯»": 2666,
      "åľŁåľ°": 2667,
      "è¾Ĩ": 2668,
      "éĶ®": 2669,
      "åĮºçļĦ": 2670,
      "æ¯ķä¸ļ": 2671,
      "æģ¢å¤į": 2672,
      "Ġ6": 2673,
      "36": 2674,
      "æľīçļĦ": 2675,
      "é£ŀæľº": 2676,
      "ç¬¬äºĮæ¬¡": 2677,
      "99": 2678,
      "ä¸īå¹´": 2679,
      "å±ħæ°ĳ": 2680,
      "äº«": 2681,
      "äº¨": 2682,
      "éĤ®": 2683,
      "èĩ³ä»Ĭ": 2684,
      "çļĦå½±åĵį": 2685,
      "æ¡ĥ": 2686,
      "åŃ©": 2687,
      "åĤ¨": 2688,
      "å¦ĩ": 2689,
      "å°½ç®¡": 2690,
      "ä¼Ł": 2691,
      "åŃĿ": 2692,
      "çļĦä¸»": 2693,
      "åĩ½æķ°": 2694,
      "èİİ": 2695,
      "éĥŃ": 2696,
      "âĢĿãĢģ": 2697,
      "æļĹ": 2698,
      "ç³ĸ": 2699,
      "ign": 2700,
      "æĬ¥åĳĬ": 2701,
      "æĹ¥åĨĽ": 2702,
      "ä»ĺ": 2703,
      "æ®Ĭ": 2704,
      "ity": 2705,
      "éĥ¨ä»½": 2706,
      "éĻ·": 2707,
      "åĪĨç±»": 2708,
      "75": 2709,
      "çĸ¾": 2710,
      "æķ´ä¸ª": 2711,
      "åģ¶": 2712,
      "æ»¨": 2713,
      "ä»¥åĲİ": 2714,
      "æī¹è¯Ħ": 2715,
      "ãĢįãĢģãĢĮ": 2716,
      "å®¶æĹı": 2717,
      "éªĳ": 2718,
      "åĢĴ": 2719,
      "è½¨éģĵ": 2720,
      "ä¸¾åĬŀ": 2721,
      "ĠæĿİ": 2722,
      "åįģä¸Ģ": 2723,
      "æ¸ħæľĿ": 2724,
      "çĩĥ": 2725,
      "2009": 2726,
      "2011": 2727,
      "çĬ¹å¤ª": 2728,
      "æĽ¾ç»ı": 2729,
      "æİ¨åĩº": 2730,
      "Ġæ³¨": 2731,
      "æĭĴ": 2732,
      "ç¾½": 2733,
      "åĽ½çļĦ": 2734,
      "æĿ¡ä»¶": 2735,
      "ä¸įå°ĳ": 2736,
      "å°ıåŃ¦": 2737,
      "åĨłåĨĽ": 2738,
      "ä¿ĥ": 2739,
      "åľĪ": 2740,
      "ï¼ģ": 2741,
      "åĬłæĭ¿": 2742,
      "æģĭ": 2743,
      "ç¬¬ä¸Ģä¸ª": 2744,
      "éĢŁåº¦": 2745,
      "ew": 2746,
      "éļıåĲİ": 2747,
      "è¥¿æĸ¹": 2748,
      "åįĸ": 2749,
      "åĽ½åĨħ": 2750,
      "ä½Ĳ": 2751,
      "åĮĪ": 2752,
      "çĶµèĦĳ": 2753,
      "çĸĨ": 2754,
      "çº½çº¦": 2755,
      "æ°ĶåĢĻ": 2756,
      "çİ©": 2757,
      "å®¿": 2758,
      "éĿĻ": 2759,
      "æĤ£": 2760,
      "æķĻä¼ļ": 2761,
      "é¼ĵ": 2762,
      "ä¸įä¼ļ": 2763,
      "æ²Ī": 2764,
      "ï½ŀ": 2765,
      "è¢ģ": 2766,
      "45": 2767,
      "åĩıå°ĳ": 2768,
      "åĨįæ¬¡": 2769,
      "éĴ¢": 2770,
      "Ġé«ĺ": 2771,
      "å¯¼æ¼Ķ": 2772,
      "å¹¿æ³Ľ": 2773,
      "åĲĦåľ°": 2774,
      "ä¼¸": 2775,
      "åĽ½æ°ĳåħļ": 2776,
      "è¿ŀæİ¥": 2777,
      "äººå£«": 2778,
      "çĹħæ¯Ĵ": 2779,
      "æĪª": 2780,
      "ĠåıĤèĢĥèµĦæĸĻ": 2781,
      "ç¿¼": 2782,
      "èģĮä¸ļ": 2783,
      "32": 2784,
      "é»ĺ": 2785,
      "æĿ¯": 2786,
      "éĹŃ": 2787,
      "äºĭåĬ¡": 2788,
      "è¡¨çİ°": 2789,
      "è¾ī": 2790,
      "2012": 2791,
      "å¼±": 2792,
      "æĪĺå½¹": 2793,
      "ï¼Īï¼īï¼Į": 2794,
      "åģı": 2795,
      "éŁ¦": 2796,
      "ä½©": 2797,
      "é¥®": 2798,
      "ĠåįĹ": 2799,
      "ç»ıå¸¸": 2800,
      "èµĸ": 2801,
      "åĪĻæĺ¯": 2802,
      "±ä¹Ĳ": 2803,
      "çŃīäºº": 2804,
      "å¦¹": 2805,
      "åĲĽä¸»": 2806,
      "æľīéĻĲåħ¬åı¸": 2807,
      "åı¸ä»¤": 2808,
      "éļľ": 2809,
      "è·Ŀç¦»": 2810,
      "if": 2811,
      "è§Ī": 2812,
      "Ġé©¬": 2813,
      "èļ": 2814,
      "å¼ķèµ·": 2815,
      "æĮģç»Ń": 2816,
      "åħģ": 2817,
      "åı¤ä»£": 2818,
      "åįĬå²Ľ": 2819,
      "ç²¾ç¥ŀ": 2820,
      "Ġ10": 2821,
      "è¿ĲåĬ¨åĳĺ": 2822,
      "å°ĳæķ°": 2823,
      "æ³ķéĻ¢": 2824,
      "æľºåħ³": 2825,
      "ex": 2826,
      "ub": 2827,
      "èĹ¤": 2828,
      "Ġä¸ľ": 2829,
      "åĳĪ": 2830,
      "åĽ°": 2831,
      "åĲĪå¹¶": 2832,
      "æĪĺæĸĹ": 2833,
      "tw": 2834,
      "èĭ±æĸĩ": 2835,
      "èĮ¨": 2836,
      "åĮĹéĥ¨": 2837,
      "åĩłä¹İ": 2838,
      "åıĳå¸ĥ": 2839,
      "åľ°åĮºçļĦ": 2840,
      "ä¸ĵè¾ĳ": 2841,
      "æ±¤": 2842,
      "é¡µ": 2843,
      "åĢį": 2844,
      "ç¡¬": 2845,
      "è·¨": 2846,
      "èĳ¡": 2847,
      "è°±": 2848,
      "çĨĻ": 2849,
      "å¢ĥåĨħ": 2850,
      "çĥ§": 2851,
      "2002": 2852,
      "æ¯«": 2853,
      "æŃĮæĽ²": 2854,
      "æµĻ": 2855,
      "èĢħçļĦ": 2856,
      "ä¸Ńåħ±ä¸Ńå¤®": 2857,
      "è§£éĩĬ": 2858,
      "æķ°éĩı": 2859,
      "ç»§æī¿": 2860,
      "æĿĥåĬĽ": 2861,
      "ä¼°": 2862,
      "è§Ĩä¸º": 2863,
      "è¯ģæĺİ": 2864,
      "ind": 2865,
      "èĶ¡": 2866,
      "39": 2867,
      "åĵ²åŃ¦": 2868,
      "è¿ħ": 2869,
      "èĳĹä½ľ": 2870,
      "æ¯ıå¹´": 2871,
      "ä¸įæĸŃ": 2872,
      "Ġw": 2873,
      "2013": 2874,
      "åŁĶ": 2875,
      "48": 2876,
      "åľ¨æŃ¤": 2877,
      "ine": 2878,
      "hans": 2879,
      "å®ŀçİ°": 2880,
      "è§£åĨ³": 2881,
      "åħ±æľī": 2882,
      "Ġï¼Į": 2883,
      "çģ¾": 2884,
      "1990": 2885,
      "æ¢°": 2886,
      "ĠĠĠĠĠĠĠĠ": 2887,
      "å±ħä½ı": 2888,
      "é£İæł¼": 2889,
      "åħ¨éĥ¨": 2890,
      "äºīè®®": 2891,
      "åĿĲ": 2892,
      "å¥Ī": 2893,
      "2001": 2894,
      "ä»»åĬ¡": 2895,
      "ov": 2896,
      "èĳ¬": 2897,
      "æ¼ĶåĶ±": 2898,
      "é©±": 2899,
      "æĮ¯": 2900,
      "è¥¿åįĹ": 2901,
      "ä¼Ĭæĸ¯": 2902,
      "åĩ¡": 2903,
      "æ¼«çĶ»": 2904,
      "å®ĥçļĦ": 2905,
      "ä¸»ä»»": 2906,
      "ç²Ĵ": 2907,
      "åĬłæĭ¿å¤§": 2908,
      "ht": 2909,
      "èį·åħ°": 2910,
      "åĦĴ": 2911,
      "æ¾³éĹ¨": 2912,
      "åĽ½åĬ¡éĻ¢": 2913,
      "åİ»ä¸ĸ": 2914,
      "å¤§çº¦": 2915,
      "åĬłä¸Ĭ": 2916,
      "æĿĲæĸĻ": 2917,
      "æĹłçº¿": 2918,
      "å¤©ä¸»æķĻ": 2919,
      "å·¦åı³": 2920,
      "éĻĲåĪ¶": 2921,
      "æ¯Ľæ³½": 2922,
      "æ£Ĵ": 2923,
      "åĲįçļĦ": 2924,
      "åį«æĺŁ": 2925,
      "æļĤ": 2926,
      "éĢıè¿ĩ": 2927,
      "éķ¿æľŁ": 2928,
      "95": 2929,
      "çī§": 2930,
      "å»ºè®®": 2931,
      "ç´«": 2932,
      "å³¡": 2933,
      "åĮ»åŃ¦": 2934,
      "éĶ¦": 2935,
      "åĽ½ä¼ļ": 2936,
      "âĢĿãĢģâĢľ": 2937,
      "è®°å½ķ": 2938,
      "è®¾æľī": 2939,
      "åħ¬å¼Ģ": 2940,
      "æ¯Ľæ³½ä¸ľ": 2941,
      "æŁ¯": 2942,
      "æĺ¯ä¸Ģç§į": 2943,
      "å½¼": 2944,
      "åĽ¾ä¹¦é¦Ĩ": 2945,
      "å¹¼": 2946,
      "çºªå½ķ": 2947,
      "æľīäºĽ": 2948,
      ";}-": 2949,
      "å¤§å¤ļæķ°": 2950,
      "ç¼ĺ": 2951,
      "çŁ¥è¯Ĩ": 2952,
      "åıĬåħ¶": 2953,
      "98": 2954,
      "è§¦": 2955,
      "åĨ¯": 2956,
      "Ġ0": 2957,
      "çĽ®æłĩ": 2958,
      "è§ĦåĪĴ": 2959,
      "ĠCh": 2960,
      "åįģåĪĨ": 2961,
      "è´¨éĩı": 2962,
      "è±ª": 2963,
      "æ½ľ": 2964,
      "åŃĹæ¯į": 2965,
      "åĨĪ": 2966,
      "åıĸä»£": 2967,
      "ä¹ĭå¤ĸ": 2968,
      "çļĦæĸ°": 2969,
      "åıĽ": 2970,
      "2016": 2971,
      "2014": 2972,
      "å·´å£«": 2973,
      "æĴĴ": 2974,
      "ç¦»å¼Ģ": 2975,
      "éĥ½æľī": 2976,
      "ä¸Ńå±±": 2977,
      "ä¸įåı¯": 2978,
      "æķı": 2979,
      "æĬĺ": 2980,
      "æĸ¹åĲĳ": 2981,
      "ãĢİ": 2982,
      "ãĢı": 2983,
      "çĳŁ": 2984,
      "åŃ¦æľ¯": 2985,
      "68": 2986,
      "æĺĨ": 2987,
      "çĥŁ": 2988,
      "çĬ¶æĢģ": 2989,
      "æĻ®éĢļ": 2990,
      "éĹ½": 2991,
      "åįļå£«": 2992,
      "èĦļ": 2993,
      "å¹´åĲİ": 2994,
      "å¥¥æĸ¯": 2995,
      "éļĲ": 2996,
      "åŃĲçļĦ": 2997,
      "åĲįåŃĹ": 2998,
      "æĢ»äººåı£": 2999,
      "é¦ĸéĥ½": 3000,
      "ç»©": 3001,
      "æī¿è®¤": 3002,
      "è¸": 3003,
      "å¤§èĩ£": 3004,
      "2020": 3005,
      "çİ°è±¡": 3006,
      "èĲ§": 3007,
      "åĲĥ": 3008,
      "é¢ĳéģĵ": 3009,
      "ç»Łè®¡": 3010,
      "ell": 3011,
      "ç¨ĭåºı": 3012,
      "åĿĽ": 3013,
      "å¹ħ": 3014,
      "çĸ«": 3015,
      "å¹»": 3016,
      "é«ĺçŃī": 3017,
      "ä»ĸä»¬çļĦ": 3018,
      "åŁĥåıĬ": 3019,
      "é£ŀè¡Į": 3020,
      "ç¨ĭåº¦": 3021,
      "æ®ĭ": 3022,
      "æİĴåĲį": 3023,
      "ï¼īï¼Ī": 3024,
      "æł¡åıĭ": 3025,
      "æ±½è½¦": 3026,
      "ç±»åŀĭ": 3027,
      "ä¸»å¼ł": 3028,
      "éĩįçĤ¹": 3029,
      "47": 3030,
      "ard": 3031,
      "å¤©çļĩ": 3032,
      "æħĪ": 3033,
      "å¤ļæ¬¡": 3034,
      "è¿ĺæĺ¯": 3035,
      "çĤİ": 3036,
      "55": 3037,
      "é¾Ħ": 3038,
      "èĭ±æł¼åħ°": 3039,
      "ä¼¦æķ¦": 3040,
      "éĺ¶æ®µ": 3041,
      "ç²¤": 3042,
      "çŃĶ": 3043,
      "åįģåħŃ": 3044,
      "èĻļ": 3045,
      "æĭŁ": 3046,
      "2015": 3047,
      "æµ¦": 3048,
      "ä½Ĩåľ¨": 3049,
      "é¢Ĺ": 3050,
      "å°Ķæĸ¯": 3051,
      "åĦ¿åŃĲ": 3052,
      "éĽķ": 3053,
      "æĢ§è´¨": 3054,
      "1997": 3055,
      "ç¢ĳ": 3056,
      "åŃŁ": 3057,
      "æĪĪ": 3058,
      "çļĦçī¹": 3059,
      "ĠY": 3060,
      "ud": 3061,
      "1998": 3062,
      "ç¤¾ä¼ļä¸»ä¹ī": 3063,
      "ç»¼åĲĪ": 3064,
      "æ¯Ķäºļ": 3065,
      "¤Ĳ": 3066,
      "åĲĮæł·": 3067,
      "åħĪåĲİ": 3068,
      "æ³¢åħ°": 3069,
      "çº²": 3070,
      "è½¯ä»¶": 3071,
      "çıį": 3072,
      "åĭĩ": 3073,
      "çĶ¨çļĦ": 3074,
      "æ²ī": 3075,
      "æł¡éķ¿": 3076,
      "ĠĠĊ": 3077,
      "1999": 3078,
      "å¸¸è§ģ": 3079,
      "èĻ«": 3080,
      "åİ¦": 3081,
      "åŁºåľ°": 3082,
      "ä¿ĿæĮģ": 3083,
      "ï¼ĮãĢĮ": 3084,
      "ra": 3085,
      "å¿Ĩ": 3086,
      "å¤©æĸĩ": 3087,
      "å®Ļ": 3088,
      "å¹´åľ¨": 3089,
      "éĻĨåĨĽ": 3090,
      "è¿·": 3091,
      "åįıè®®": 3092,
      "ä¸ĢæŃ¥": 3093,
      "è·¯çº¿": 3094,
      "ï¼ı": 3095,
      "ob": 3096,
      "ç²ī": 3097,
      "çĦ¶åĲİ": 3098,
      "æ¯įäº²": 3099,
      "éĿ¢çļĦ": 3100,
      "æ¡£": 3101,
      "æ¡ĳ": 3102,
      "å¥³åŃĲ": 3103,
      "è´¤": 3104,
      "æĪĲçļĦ": 3105,
      "èĳĹåĲįçļĦ": 3106,
      "ç¾¤å²Ľ": 3107,
      "ill": 3108,
      "Ġzh": 3109,
      "çĶµåı°": 3110,
      "è¡ĮæĺŁ": 3111,
      "å·´é»İ": 3112,
      "å¨ģå»ī": 3113,
      "éĺ¿æĭīä¼¯": 3114,
      "ĠãĢĤ": 3115,
      "çºµ": 3116,
      "åĬ¿åĬĽ": 3117,
      "åĽĽå·Ŀ": 3118,
      "ian": 3119,
      "åħ¶å®ĥ": 3120,
      "æ¹ĸåįĹ": 3121,
      "æµª": 3122,
      "ĠãĢĮ": 3123,
      "å±±ä¸ľ": 3124,
      "é«ĺçº§": 3125,
      "æĬķèµĦ": 3126,
      "ç¥¥": 3127,
      "å¤©æ´¥": 3128,
      "åıĮæĸ¹": 3129,
      "æ¨¡å¼ı": 3130,
      "ge": 3131,
      "é©¬æĿ¥": 3132,
      "åĢ¾": 3133,
      "èİī": 3134,
      "æĭĴç»Ŀ": 3135,
      "é¬": 3136,
      "æ¹ĺ": 3137,
      "èĻĳ": 3138,
      "æīİ": 3139,
      "ä¿¡ä»°": 3140,
      "éŀ": 3141,
      "æĺ¯åĲ¦": 3142,
      "æ·¡": 3143,
      "æĭīåħĭ": 3144,
      "è®¾æĸ½": 3145,
      "ãĢĤãĢĬ": 3146,
      "åıĪç§°": 3147,
      "å®ŀæĸ½": 3148,
      "æľĢåĪĿ": 3149,
      "çŃ¹": 3150,
      "ç¾İæ´²": 3151,
      "å¢Ļ": 3152,
      "éĶĭ": 3153,
      "æķ¬": 3154,
      "éģ£": 3155,
      "Ġl": 3156,
      "Ġéĺ¿": 3157,
      "NA": 3158,
      "Ġä¸ī": 3159,
      "è¿ŀç»Ń": 3160,
      "è¢ĸ": 3161,
      "éĽĨä¸Ń": 3162,
      "çłĶç©¶æīĢ": 3163,
      "èĲĦ": 3164,
      "å²³": 3165,
      "å¹´åº¦": 3166,
      "éĥ¨éĹ¨": 3167,
      "ĠUn": 3168,
      "èĳ¡èĲĦ": 3169,
      "Ġ12": 3170,
      "åĩºäºĨ": 3171,
      "å¤ļä¸ª": 3172,
      "è®¾ç½®": 3173,
      "æŁ±": 3174,
      "ç¢³": 3175,
      "æĸĩçī©": 3176,
      "align": 3177,
      "æĸĩä»¶": 3178,
      "æŃ¤åĲİ": 3179,
      "èĢĮåľ¨": 3180,
      "--": 3181,
      "ä¸Ģå¸¦": 3182,
      "çĽ®çļĦ": 3183,
      "æĹģ": 3184,
      "è¿Ĳè¾ĵ": 3185,
      "åİļ": 3186,
      "ç»ª": 3187,
      "å½ĵä¸Ń": 3188,
      "èĭ¦": 3189,
      "ç¬¬äºĶ": 3190,
      "æħķ": 3191,
      "åĨħéĥ¨": 3192,
      "å¹¸": 3193,
      "èĿ": 3194,
      "ä¹Ļ": 3195,
      "Ġ/": 3196,
      "æĸ¹è¨Ģ": 3197,
      "å½Ń": 3198,
      "æĥħåĨµä¸ĭ": 3199,
      "æĹ¶çļĦ": 3200,
      "idae": 3201,
      "2017": 3202,
      "èĳĽ": 3203,
      "ä¼ı": 3204,
      "çļĦçłĶç©¶": 3205,
      "è¿ĽæĶ»": 3206,
      "67": 3207,
      "å®ŀè¡Į": 3208,
      "ä¸įä¹ħ": 3209,
      "è¢«è®¤ä¸º": 3210,
      "ä¼´": 3211,
      "Ġn": 3212,
      "åįģå¹´": 3213,
      "çĶ¨æĿ¥": 3214,
      "æĿĤå¿Ĺ": 3215,
      "åŃ¦ç§ĳ": 3216,
      "ç¦ıå»º": 3217,
      "çļĦåıĳå±ķ": 3218,
      "1980": 3219,
      "çº·": 3220,
      "éģĵè·¯": 3221,
      "çİĦ": 3222,
      "æĭīæĸ¯": 3223,
      "ç®Ģç§°": 3224,
      "åħ¶åĲİ": 3225,
      "èĬ³": 3226,
      "ran": 3227,
      "ev": 3228,
      "ĠåĮĹ": 3229,
      "è¥¿åĮĹ": 3230,
      "all": 3231,
      "èıĮ": 3232,
      "åŁºçĿ£æķĻ": 3233,
      "æ¯Ķä¾ĭ": 3234,
      "2019": 3235,
      "åįģåĽĽ": 3236,
      "åıĳå°Ħ": 3237,
      "çĨŁ": 3238,
      "æĦıä¹ī": 3239,
      "æĻ®éģį": 3240,
      "åºĶè¯¥": 3241,
      "ä¸ŃåĽ½åħ±äº§åħļ": 3242,
      "è¯ļ": 3243,
      "ç¡®å®ļ": 3244,
      "è¦": 3245,
      "æŃ¦åĻ¨": 3246,
      "éĺ¶çº§": 3247,
      "çĶµè§Ĩåī§": 3248,
      "æ°ĳéĹ´": 3249,
      "èµı": 3250,
      "åŁºäºİ": 3251,
      "è¿ĩåİ»": 3252,
      "é©¬åħĭ": 3253,
      "ç¾Ĭ": 3254,
      "æĢ»çĿ£": 3255,
      "æ°¢": 3256,
      "å»ºéĢł": 3257,
      "åŁºéĩĳ": 3258,
      "ä»·åĢ¼": 3259,
      "è§ĤçĤ¹": 3260,
      "å½ĵéĢī": 3261,
      "2018": 3262,
      "è®®éĻ¢": 3263,
      "çļĦåĽ½å®¶": 3264,
      "æĿ¥è¯´": 3265,
      "ec": 3266,
      "æķ°åŃĹ": 3267,
      "å±¿": 3268,
      "æĻ¶": 3269,
      "åıªæĺ¯": 3270,
      "Ġ17": 3271,
      "II": 3272,
      "ä¼Ĭæĸ¯åħ°": 3273,
      "ĠçĶŁ": 3274,
      "åįĹéĥ¨": 3275,
      "éģĤ": 3276,
      "æĪĸæĺ¯": 3277,
      "åĲĪçī©": 3278,
      "è´¯": 3279,
      "äººåı£ä¸º": 3280,
      "ep": 3281,
      "ï¼Īï¼Į": 3282,
      "ç§Ł": 3283,
      "è¯´æ³ķ": 3284,
      "ç¬¦åı·": 3285,
      "åĮĸçļĦ": 3286,
      "å¹¶äºİ": 3287,
      "ç»ĵåĲĪ": 3288,
      "éī": 3289,
      "åĦ¿ç«¥": 3290,
      "åĬĽéĩı": 3291,
      "éĿŀæ´²": 3292,
      "Ġæ³¨éĩĬ": 3293,
      "Ġçİĭ": 3294,
      "æł¸å¿ĥ": 3295,
      "éģŃåĪ°": 3296,
      "éĩĮæĸ¯": 3297,
      "44": 3298,
      "å¦ĥ": 3299,
      "æĭĵ": 3300,
      "é¢ĨåľŁ": 3301,
      "æ¼Ķåĩº": 3302,
      "Ġï¼ļ": 3303,
      "éĥ½ä¼ļ": 3304,
      "å°¤åħ¶": 3305,
      "ĠPr": 3306,
      "éŁµ": 3307,
      "ç§»æ°ĳ": 3308,
      "hk": 3309,
      "Ġåīį": 3310,
      "å¹´èµ·": 3311,
      "2021": 3312,
      "åįģäºĶ": 3313,
      "èĥĮæĻ¯": 3314,
      "ä¸īä¸ĸ": 3315,
      "ä»»åĳ½": 3316,
      "åĮ¹": 3317,
      "åĪĿæľŁ": 3318,
      "éĩįåºĨ": 3319,
      "eb": 3320,
      "æĶ¶åħ¥": 3321,
      "éļıçĿĢ": 3322,
      "æħ¢": 3323,
      "æī¹åĩĨ": 3324,
      "äººåľ¨": 3325,
      "æľīæĹ¶": 3326,
      "éķ¿çļĦ": 3327,
      "est": 3328,
      "åħĥå¹´": 3329,
      "è®¡ç®Ĺæľº": 3330,
      "ä½ľæĪĺ": 3331,
      "188": 3332,
      "æĸ¹ç¨ĭ": 3333,
      "58": 3334,
      "äº¤æµģ": 3335,
      "ĠĠĠ": 3336,
      "å¸®åĬ©": 3337,
      "èµ·æĿ¥": 3338,
      "åįĵ": 3339,
      "åĨ²çªģ": 3340,
      "çļĩåĲİ": 3341,
      "ä»Ķ": 3342,
      "ä½¿çĶ¨çļĦ": 3343,
      "é©¶": 3344,
      "æľºæ¢°": 3345,
      "ä¼į": 3346,
      "è¿Ľä¸ĢæŃ¥": 3347,
      "ç¨³å®ļ": 3348,
      "å°ĸ": 3349,
      "å»¶ä¼¸": 3350,
      "èĬĿ": 3351,
      "ç»´æĮģ": 3352,
      "art": 3353,
      "Ġ\"": 3354,
      "èİ²": 3355,
      "è®¨è®º": 3356,
      "æĺ¯ä¸ŃåĽ½": 3357,
      "æ¡Ĥ": 3358,
      "æ±¡": 3359,
      "åĬłåĿ¡": 3360,
      "éĿĴå¹´": 3361,
      "ç»ķ": 3362,
      "åįĹåĮĹ": 3363,
      "æ¦ľ": 3364,
      "æĺİæľĿ": 3365,
      "èĭĹ": 3366,
      "å®ĺåĳĺ": 3367,
      "åİĨåı²ä¸Ĭ": 3368,
      "Â°": 3369,
      "ä¸¤ç§į": 3370,
      "è¯Ħä»·": 3371,
      "ip": 3372,
      "éļıèĳĹ": 3373,
      "åħĦå¼Ł": 3374,
      "åı°åĮĹå¸Ĥ": 3375,
      "è¡¨è¾¾": 3376,
      "åıĳæĺİ": 3377,
      "æ·®": 3378,
      "Ġå¼ł": 3379,
      "ç½ķ": 3380,
      "ä¸ĸçķĮå¤§æĪĺ": 3381,
      "æ¯ıä¸ª": 3382,
      "è¦Ĩ": 3383,
      "æĺ¯æĮĩ": 3384,
      "å¥½çļĦ": 3385,
      "ak": 3386,
      "å¡ŀå°Ķ": 3387,
      "åĩĨå¤ĩ": 3388,
      "ĠçĶ±äºİ": 3389,
      "åĩ»è´¥": 3390,
      "çł´åĿı": 3391,
      "å·ŀå¸Ĥ": 3392,
      "é¢Ĩè¢ĸ": 3393,
      "å¹³åİŁ": 3394,
      "åī²": 3395,
      "é¸¡": 3396,
      "Ġéĩĳ": 3397,
      "è¯¦": 3398,
      "æĸ¹æ¡Ī": 3399,
      "åĲĮæĦı": 3400,
      "ä¿ĿçķĻ": 3401,
      "ç®Ń": 3402,
      "æ²»çĸĹ": 3403,
      "ĠéĻĪ": 3404,
      "ç¿ł": 3405,
      "æĴŀ": 3406,
      "è¡Ĺéģĵ": 3407,
      "æµĻæ±Ł": 3408,
      "The": 3409,
      "å¹¶æ²¡æľī": 3410,
      "å¡ĺ": 3411,
      "æ±īè¯Ń": 3412,
      "åħ´å»º": 3413,
      "æŁĲäºĽ": 3414,
      "å¤·": 3415,
      "éĤĢ": 3416,
      "å¡ĳ": 3417,
      "æħ§": 3418,
      "æ£ĭ": 3419,
      "æľīæķĪ": 3420,
      "âĨ": 3421,
      "æ²³æµģ": 3422,
      "ç¼ĵ": 3423,
      "æĵįä½ľ": 3424,
      "ä»ĵ": 3425,
      "åĭĥ": 3426,
      "çĮ«": 3427,
      "æº¶": 3428,
      "59": 3429,
      "çģ¯": 3430,
      "è¿Ŀ": 3431,
      "Ġv": 3432,
      "é¬¼": 3433,
      "å¹¿åľº": 3434,
      "å¤įæĿĤ": 3435,
      "èĥ½éĩı": 3436,
      "æĹ¢": 3437,
      "åĲ¨": 3438,
      "å¹³æĸ¹åħ¬éĩĮ": 3439,
      "åı¬å¼Ģ": 3440,
      "ä¸įåĨį": 3441,
      "æĿĥåĪ©": 3442,
      "éī´": 3443,
      "æĭīä¸ģ": 3444,
      "Ġa": 3445,
      "åİŁæľ¬": 3446,
      "æ¬²": 3447,
      "é¤Ĳ": 3448,
      "å½ĵæĹ¶çļĦ": 3449,
      "æĺĤ": 3450,
      "ç¿»è¯ĳ": 3451,
      "è¯¾ç¨ĭ": 3452,
      "ä¸įå¾Ĺ": 3453,
      "çŃīçŃī": 3454,
      "åĪĢ": 3455,
      "æĹ¥æĬ¥": 3456,
      "æ²³åįĹ": 3457,
      "è¯ŀ": 3458,
      "éļ§": 3459,
      "åĬŀåħ¬": 3460,
      "77": 3461,
      "çĶ·æĢ§": 3462,
      "500": 3463,
      "è®¾å¤ĩ": 3464,
      "æĸ¯ç§ĳ": 3465,
      "ä¸Ģä½į": 3466,
      "1996": 3467,
      "å¤«äºº": 3468,
      "çģ°": 3469,
      "æıĲé«ĺ": 3470,
      "çĭ±": 3471,
      "åŁºåĽł": 3472,
      "Ġæł¹æį®": 3473,
      "åħ¬æ°ĳ": 3474,
      "é«ĺåº¦": 3475,
      "äº¤æĺĵ": 3476,
      "å®£ä¼ł": 3477,
      "éĦ": 3478,
      "åıĺæĪĲ": 3479,
      "èµĦè®¯": 3480,
      "å®ĩå®Ļ": 3481,
      "å°Ĩåħ¶": 3482,
      "åįĹæĸ¹": 3483,
      "é¹¿": 3484,
      "ä»¥å¤ĸ": 3485,
      "è±Ĩ": 3486,
      "è´º": 3487,
      "ç»ıèĲ¥": 3488,
      "åĳ½åĲį": 3489,
      "åħģè®¸": 3490,
      "ä¹ĭæĪĺ": 3491,
      "è½´": 3492,
      "ivers": 3493,
      "çī¹æ®Ĭ": 3494,
      "å¿ĥçĲĨ": 3495,
      "ä»¥åīį": 3496,
      "è¥¿éĥ¨": 3497,
      "ĠISBN": 3498,
      "è®¿éĹ®": 3499,
      "Ġst": 3500,
      "ok": 3501,
      "çĶ·åŃĲ": 3502,
      "å¸ĤåĮº": 3503,
      "æ²Ł": 3504,
      "é¥°æ¼Ķ": 3505,
      "è´¾": 3506,
      "èµ´": 3507,
      "åħ½": 3508,
      "ä½ľæĽ²": 3509,
      "æĺİæĺ¾": 3510,
      "é«ĺçļĦ": 3511,
      "æľºè½¦": 3512,
      "æŁ³": 3513,
      "æ©": 3514,
      "å¤§åŀĭ": 3515,
      "å¦ĤæŃ¤": 3516,
      "å¤©ä¸ĭ": 3517,
      "è¯Ħè®º": 3518,
      "2022": 3519,
      "46": 3520,
      "åĽłèĢĮ": 3521,
      "ows": 3522,
      "å±ķå¼Ģ": 3523,
      "ä¸ĸçķĮä¸Ĭ": 3524,
      "äº¿åħĥ": 3525,
      "ä¹Ķæ²»": 3526,
      "ä»ĳ": 3527,
      "ä¹Ŀé¾Ļ": 3528,
      "è´µæĹı": 3529,
      "åįģåħ«": 3530,
      "æĸ¯çļĦ": 3531,
      "äº¨åĪ©": 3532,
      "ä¼ļåľ¨": 3533,
      "å£ģ": 3534,
      "Ġ2004": 3535,
      "96": 3536,
      "ä¸Ģå¹´": 3537,
      "æ°ĳä¸»åħļ": 3538,
      "æİ¥è¿ĳ": 3539,
      "å§Ĳ": 3540,
      "Ġä¸Ńåįİäººæ°ĳåħ±åĴĮåĽ½": 3541,
      "çļĦéĩįè¦ģ": 3542,
      "èĤĥ": 3543,
      "çĭ®": 3544,
      "å·¥åħ·": 3545,
      "Ġ2005": 3546,
      "æ»ĳ": 3547,
      "ä¸Ģå®ļ": 3548,
      "ä¼łè¯´": 3549,
      "ä½ĵç³»": 3550,
      "åı¸é©¬": 3551,
      "å¥ĳ": 3552,
      "çİ»": 3553,
      "å¸ĪèĮĥ": 3554,
      "çĮİ": 3555,
      "éĿĸ": 3556,
      "æĿŃ": 3557,
      "å¨ģå°Ķ": 3558,
      "è¿Ī": 3559,
      "çŃīåľ°": 3560,
      "åĲİæľŁ": 3561,
      "æľ¬èº«": 3562,
      "å¤±è´¥": 3563,
      "æĸĩç«ł": 3564,
      "äºĭå®ŀ": 3565,
      "æ¸©åº¦": 3566,
      "èĽĭçĻ½": 3567,
      "Ġ11": 3568,
      "åįģä¸ī": 3569,
      "æīĢåľ¨": 3570,
      "1995": 3571,
      "ie": 3572,
      "æµĵ": 3573,
      "åľ¨è¿Ļ": 3574,
      "æĭ³": 3575,
      "èĥ¶": 3576,
      "åį«çĶŁ": 3577,
      "'s": 3578,
      "ä¼¯çī¹": 3579,
      "çĲĥéĺŁ": 3580,
      "ä¸´æĹ¶": 3581,
      "ãĢģãĢģ": 3582,
      "åĲĮçĽŁ": 3583,
      "1994": 3584,
      "å¹¿åĳĬ": 3585,
      "åĬ¨åĬĽ": 3586,
      "èīĺ": 3587,
      "enter": 3588,
      "æŀĦæĪĲ": 3589,
      "åħ¥ä¾µ": 3590,
      "è¿Ĳè¡Į": 3591,
      "ä¸ĭéĻį": 3592,
      "è©": 3593,
      "æŃ¤æĹ¶": 3594,
      "æ°ĳä¼Ĺ": 3595,
      "und": 3596,
      "çļĦåľ°": 3597,
      "æ¹¿": 3598,
      "æµ®": 3599,
      "ä¸»è§Ĵ": 3600,
      "èº«ä»½": 3601,
      "1993": 3602,
      "åĽ½éĺ²": 3603,
      "åıªèĥ½": 3604,
      "æĶ¿åħļ": 3605,
      "å¤ĸåĽ½": 3606,
      "æ±Łèĭı": 3607,
      "çĶŁåĳ½": 3608,
      "ä¼łæĴŃ": 3609,
      "å¹´åīį": 3610,
      "è§£æĶ¾åĨĽ": 3611,
      "çļĦæĹ¶åĢĻ": 3612,
      "å¾ª": 3613,
      "åĪĽéĢł": 3614,
      "æµ·æ´ĭ": 3615,
      "è·¯æĺĵ": 3616,
      "æ³ķåħ°": 3617,
      "ä¹ı": 3618,
      "ä»²": 3619,
      "çŀ": 3620,
      "æ¯Ķå¦Ĥ": 3621,
      "èĢĮæĺ¯": 3622,
      "ç¬¬åħŃ": 3623,
      "èĩªåĬ¨": 3624,
      "1992": 3625,
      "å¤ªç©º": 3626,
      "æķ°çļĦ": 3627,
      "ç¦ģæŃ¢": 3628,
      "è©¹": 3629,
      "äºĭä¸ļ": 3630,
      "èµĭ": 3631,
      "ĠAn": 3632,
      "å®ŀéĻħä¸Ĭ": 3633,
      "å¼ķåıĳ": 3634,
      "è§Ĥå¯Ł": 3635,
      "57": 3636,
      "çĶ¨æĪ·": 3637,
      "âĢ¦âĢ¦": 3638,
      "çī¹å¾ģ": 3639,
      "éļĭ": 3640,
      "è¿ĶåĽŀ": 3641,
      "97": 3642,
      "ä¸ªæľĪ": 3643,
      "éľ¸": 3644,
      "éļ§éģĵ": 3645,
      "åģľæŃ¢": 3646,
      "ä¸»é¢ĺ": 3647,
      "ï¼īï¼Ľ": 3648,
      "å¼¦": 3649,
      "é©¾": 3650,
      "å®ħ": 3651,
      "å¥¹çļĦ": 3652,
      "66": 3653,
      "ä¸ļåĬ¡": 3654,
      "ï¼ħ": 3655,
      "ç²¹": 3656,
      "åľ³": 3657,
      "åİŁåĪĻ": 3658,
      "èĥľåĪ©": 3659,
      "ive": 3660,
      "äºĮå¹´": 3661,
      "æĪĺåĲİ": 3662,
      "è´¢æĶ¿": 3663,
      "èĢĢ": 3664,
      "æĹ¦": 3665,
      "éĺħè¯»": 3666,
      "èµ·ä¹ī": 3667,
      "äºĨä¸Ģä¸ª": 3668,
      "42": 3669,
      "çļĦåīį": 3670,
      "æłĩå¿Ĺ": 3671,
      "è²": 3672,
      "æ¬¢è¿İ": 3673,
      "ç§Ĵ": 3674,
      "åĪĨéĴŁ": 3675,
      "å¤ªåŃĲ": 3676,
      "ç©ºåĨĽ": 3677,
      "å¯¹è±¡": 3678,
      "èī²çļĦ": 3679,
      "åĶĲæľĿ": 3680,
      "äºŃ": 3681,
      "æĥ¯": 3682,
      "ik": 3683,
      "åħ¬å¸ĥ": 3684,
      "åĭ¤": 3685,
      "åıĻ": 3686,
      "è®Ńç»ĥ": 3687,
      "è¡¨æ¼Ķ": 3688,
      "æł¡åĮº": 3689,
      "éĩĳèŀį": 3690,
      "äº¦æľī": 3691,
      "çĹĽ": 3692,
      "ç²®": 3693,
      "ä¸īåĽ½": 3694,
      "çķª": 3695,
      "åĬ±": 3696,
      "çĲĥåĳĺ": 3697,
      "æĭįæĳĦ": 3698,
      "åĴ¸": 3699,
      "ä¸ľè¥¿": 3700,
      "Ġ16": 3701,
      "æ¨¡åŀĭ": 3702,
      "è±¡å¾ģ": 3703,
      "è¶£": 3704,
      "éķ¿æ±Ł": 3705,
      "éģ¿åħį": 3706,
      "è§ĦåĪĻ": 3707,
      ").": 3708,
      "å®¹æĺĵ": 3709,
      "å¥³æ¼Ķåĳĺ": 3710,
      "qu": 3711,
      "æķĻåŃ¦": 3712,
      "è·ĳ": 3713,
      "çĪ±å°Ķ": 3714,
      "èŃ¦å¯Ł": 3715,
      "åĳ½ä»¤": 3716,
      "Ġ2006": 3717,
      "ç®Ģåįķ": 3718,
      "ä¸°å¯Į": 3719,
      "300": 3720,
      "éķ¿æ²Ļ": 3721,
      "çļĦæĸ¹å¼ı": 3722,
      "å°ĳå¹´": 3723,
      "1970": 3724,
      "åĽ½å®¶çļĦ": 3725,
      "ĠâĢ": 3726,
      "æŀ¢": 3727,
      "æĴ°": 3728,
      "è®°èĢħ": 3729,
      "å¿«éĢŁ": 3730,
      "å·ŀçļĦ": 3731,
      "1991": 3732,
      "éĩĮçļĦ": 3733,
      "çĸ¾çĹħ": 3734,
      "åĲĦåĽ½": 3735,
      "ä½ľèĢħ": 3736,
      "åĨħéĺģ": 3737,
      "çŁ¥éģĵ": 3738,
      "indows": 3739,
      "49": 3740,
      "æ£®æŀĹ": 3741,
      "æıĴ": 3742,
      "æĶ¿æ²»äººçī©": 3743,
      "åįłæĢ»äººåı£": 3744,
      "åħ¬ä¸»": 3745,
      "å£®": 3746,
      "ang": 3747,
      "å½»": 3748,
      "ä¸ľéĥ¨": 3749,
      "å±±èĦī": 3750,
      "åľ¨ä¸ŃåĽ½": 3751,
      "æĶ¯æı´": 3752,
      "88": 3753,
      "åŃ¦ä½į": 3754,
      "æŁ´": 3755,
      "ib": 3756,
      "æĹ¶æľŁçļĦ": 3757,
      "è¿ĩç¨ĭä¸Ń": 3758,
      "åħ¬åħĥåīį": 3759,
      "åľ°åĪ©": 3760,
      "è¡Ķ": 3761,
      "è¿ħéĢŁ": 3762,
      "å¹¶éĿŀ": 3763,
      "èį£èªī": 3764,
      "è¯ºè´Ŀå°Ķ": 3765,
      "sp": 3766,
      "1949": 3767,
      "ä»İèĢĮ": 3768,
      "äººæķ°": 3769,
      "å¥³åĦ¿": 3770,
      "è¯ķåĽ¾": 3771,
      "éĴĪå¯¹": 3772,
      "æĽ°": 3773,
      "åįıåĬ©": 3774,
      "our": 3775,
      "åĪ¶çļĦ": 3776,
      "æĸ°åĬłåĿ¡": 3777,
      "åĬĽçļĦ": 3778,
      "ff": 3779,
      "åĪ°è¾¾": 3780,
      "å±¯": 3781,
      "å´İ": 3782,
      "Ġ+": 3783,
      "çĵľ": 3784,
      "é¢Ĩå¯¼äºº": 3785,
      "âĨĴ": 3786,
      "å¯Ĵ": 3787,
      "é³": 3788,
      "æľºä¼ļ": 3789,
      "çļĩå®¶": 3790,
      "ary": 3791,
      "åĽŀåĪ°": 3792,
      "ä»Ģä¹Ī": 3793,
      "åľ¨ç¾İåĽ½": 3794,
      "åı°åįĹ": 3795,
      "æĲľ": 3796,
      "è¡ĮæĶ¿åĮºåĪĴ": 3797,
      "æ®ĸæ°ĳåľ°": 3798,
      "çĪ±å°Ķåħ°": 3799,
      "æ§": 3800,
      "è£ķ": 3801,
      "åĮĹæĸ¹": 3802,
      "å¤Ħäºİ": 3803,
      "åħĪçĶŁ": 3804,
      "ç»ıåİĨ": 3805,
      "åŃ¦ä¼ļ": 3806,
      "éĢļè½¦": 3807,
      "èĥģ": 3808,
      "è§Ĥæµĭ": 3809,
      "æĲŃ": 3810,
      "èīĩ": 3811,
      "åĽłç´ł": 3812,
      "éģĹåĿĢ": 3813,
      "âĶĢâĶĢ": 3814,
      "è°ĥæķ´": 3815,
      "56": 3816,
      "è¡¨éĿ¢": 3817,
      "åĽĽå¹´": 3818,
      "å¥¥åľ°åĪ©": 3819,
      "å¦»åŃĲ": 3820,
      "æ¼ĶåĶ±ä¼ļ": 3821,
      "å¦®": 3822,
      "ä¸§": 3823,
      "æľīäºº": 3824,
      "ect": 3825,
      "ä¹ĭä¸ĭ": 3826,
      "èĢĥèĻĳ": 3827,
      "ord": 3828,
      "éĻķ": 3829,
      "å¸ĤçļĦ": 3830,
      "åı¯èĥ½æĺ¯": 3831,
      "å±ł": 3832,
      "å¨±ä¹Ĳ": 3833,
      "Ġé»Ħ": 3834,
      "Ġåħ¶ä»ĸ": 3835,
      "ç¥Ŀ": 3836,
      "ĠåĪĺ": 3837,
      "å¤±åİ»": 3838,
      "æľªæĿ¥": 3839,
      "æĦıè¯Ĩ": 3840,
      "æĩ": 3841,
      "æľĭ": 3842,
      "ä¼½": 3843,
      "å¸ħ": 3844,
      "æĬļ": 3845,
      "éĩıçļĦ": 3846,
      "æ°´å¹³": 3847,
      "ou": 3848,
      "Ġ.": 3849,
      "æ±ª": 3850,
      "æĭ¼": 3851,
      "æİª": 3852,
      "éĩĩåıĸ": 3853,
      "æĮĳ": 3854,
      "åį¡å°Ķ": 3855,
      "ort": 3856,
      "çī©ç§į": 3857,
      "åľ°éĵģ": 3858,
      "ç¯®": 3859,
      "åģ¥åº·": 3860,
      "æ±īåŃĹ": 3861,
      "ç§ĳåŃ¦å®¶": 3862,
      "ert": 3863,
      "éĽĨåĲĪ": 3864,
      "ory": 3865,
      "çŃ¾ç½²": 3866,
      "1989": 3867,
      "ä¹³": 3868,
      "åį¿": 3869,
      "ĠX": 3870,
      "ä¸¤äºº": 3871,
      "æĮīçħ§": 3872,
      "æĦıæĢĿ": 3873,
      "æĭĨ": 3874,
      "å¼ºè°ĥ": 3875,
      "æ³Ĭ": 3876,
      "çĽ¸ä¼¼": 3877,
      "çĲ³": 3878,
      "äººæ°ĳæĶ¿åºľ": 3879,
      "ç®¡è¾ĸ": 3880,
      "åħ¬å°º": 3881,
      "ä¸ľæĸ¹": 3882,
      "41": 3883,
      "éĢ»": 3884,
      "Ġfor": 3885,
      "å±ı": 3886,
      "åĲ¾": 3887,
      "æĢª": 3888,
      "åĽ½æ°ĳæĶ¿åºľ": 3889,
      "åĹ": 3890,
      "å¤§æ¥¼": 3891,
      "æĻĵ": 3892,
      "ç¡ķ": 3893,
      "å¾Ĺä»¥": 3894,
      "åĲĲ": 3895,
      "æİ¨åĬ¨": 3896,
      "Ġ2000": 3897,
      "ä¸īè§Ĵ": 3898,
      "æµ·å¤ĸ": 3899,
      "åŃ¦çļĦ": 3900,
      "ä»¥èī²": 3901,
      "å»ºæĪĲ": 3902,
      "èĭ±éĽĦ": 3903,
      "ä¹¾": 3904,
      "åĿĳ": 3905,
      "76": 3906,
      "ä¸ĢåĲį": 3907,
      "æŃ¦è£ħ": 3908,
      "Ġ2007": 3909,
      "èĪ°éĺŁ": 3910,
      "ä¿Ĭ": 3911,
      "ĠâĢľ": 3912,
      "ä¹¦éĻ¢": 3913,
      "åįľ": 3914,
      "çļĦå°ı": 3915,
      "èĤ¥": 3916,
      "è´¡çĮ®": 3917,
      "æľīæīĢ": 3918,
      "çĭĦ": 3919,
      "æ²³åĮĹ": 3920,
      "è¶ħçº§": 3921,
      "å¤ļç§į": 3922,
      "æĬķç¥¨": 3923,
      "æķĻåłĤ": 3924,
      "ä»¥èī²åĪĹ": 3925,
      "è´ŀ": 3926,
      "Ġ2003": 3927,
      "1950": 3928,
      "Ġ2008": 3929,
      "æĸĩæĺİ": 3930,
      "å®¢è¿Ĳ": 3931,
      "St": 3932,
      "äºļåİĨ": 3933,
      "åĩĮ": 3934,
      "ä¹Łåı¯ä»¥": 3935,
      "è¾©": 3936,
      "ich": 3937,
      "43": 3938,
      "ey": 3939,
      "Ġå¤©": 3940,
      "ç»ĵå©ļ": 3941,
      "ĠâĢĵ": 3942,
      "çĺ": 3943,
      "åħ¨éĿ¢": 3944,
      "ong": 3945,
      "æĪĴ": 3946,
      "ast": 3947,
      "å¼¥": 3948,
      "èĢĮè¨Ģ": 3949,
      "èįĴ": 3950,
      "æ½ĺ": 3951,
      "ä¸įè¶³": 3952,
      "ack": 3953,
      "çĶº": 3954,
      "éĥ½å¸Ĥ": 3955,
      "èµ·æºĲ": 3956,
      "éĻ¢éķ¿": 3957,
      "å¼ĺ": 3958,
      "æĶ¾å¼ĥ": 3959,
      "å·®å¼Ĥ": 3960,
      "ä¸Ģåº¦": 3961,
      "ate": 3962,
      "åĩºä»»": 3963,
      "ç½Ĺé©¬å¸ĿåĽ½": 3964,
      "ä»¿": 3965,
      "å·§": 3966,
      "ç¨¿": 3967,
      "å¹´è½»": 3968,
      "çĲī": 3969,
      "æĺ¯ä»¥": 3970,
      "è·ĥ": 3971,
      "ç¼ĸè¾ĳ": 3972,
      "å¹´å¼Ģå§ĭ": 3973,
      "åįģä¹Ŀ": 3974,
      "èĴ¸": 3975,
      "èĩ³å°ĳ": 3976,
      "éĥĬ": 3977,
      "æķĻå¸Ī": 3978,
      "åĪĽåĬŀ": 3979,
      "1960": 3980,
      "51": 3981,
      "æİī": 3982,
      "ç´¯": 3983,
      "æĥĬ": 3984,
      "åĸĢ": 3985,
      "Ġå®ī": 3986,
      "ĠçĽ¸åħ³": 3987,
      "up": 3988,
      "ç§¯æŀģ": 3989,
      "åı¤åħ¸": 3990,
      "éĴ¦": 3991,
      "çħ¤": 3992,
      "ç§»åĬ¨": 3993,
      "å¦Ĥä½ķ": 3994,
      "ä¹Łä¼ļ": 3995,
      "å½°": 3996,
      "Ġ2010": 3997,
      "æ³¨æĦı": 3998,
      "å¹´åºķ": 3999,
      "ä¸ŃåĽ½äººæ°ĳ": 4000,
      "1945": 4001,
      "æĹ¶ä»»": 4002,
      "åĪĽç«ĭ": 4003,
      "èĳ£äºĭ": 4004,
      "å½±çīĩ": 4005,
      "åĳ¨æľŁ": 4006,
      "åĩºæĿ¥": 4007,
      "ç©ºæ°Ķ": 4008,
      "å½¢è±¡": 4009,
      "æ½Ń": 4010,
      "çŃ¾è®¢": 4011,
      "è·³": 4012,
      "æµ©": 4013,
      "å°Ķå¾·": 4014,
      "å¥¥è¿Ĳ": 4015,
      "éĥ¨èĲ½": 4016,
      "ç»´äºļ": 4017,
      "ç»ıåħ¸": 4018,
      "å§Ķä¼ļ": 4019,
      "iversity": 4020,
      "åħĭåħ°": 4021,
      "è´§å¸ģ": 4022,
      "å¹¶æľª": 4023,
      "èģĶç³»": 4024,
      "io": 4025,
      "ry": 4026,
      "ç§ĺä¹¦": 4027,
      "æīįèĥ½": 4028,
      "æ³¥": 4029,
      "éĶģ": 4030,
      "éĢĴ": 4031,
      "æĬĹæĹ¥": 4032,
      "é©¬æĿ¥è¥¿äºļ": 4033,
      "æĺŁæľŁ": 4034,
      "Ġ978": 4035,
      "center": 4036,
      "ä¸įæ»¡": 4037,
      "å¸Ĥæ°ĳ": 4038,
      "ç¬¬ä¸ĥ": 4039,
      "çļĦé«ĺ": 4040,
      "åıĸæ¶Ī": 4041,
      "ä¸ĵéĹ¨": 4042,
      "å°¼æĸ¯": 4043,
      "æĴ¤éĶĢ": 4044,
      "è¹": 4045,
      "è¿ĳä»£": 4046,
      "æĶ¹ç¼ĸ": 4047,
      "ä¸ŃåĽ½çļĦ": 4048,
      "çĽ¸æ¯Ķ": 4049,
      "äººå¤§": 4050,
      "man": 4051,
      "Ġ2012": 4052,
      "æ´Ĺ": 4053,
      "ç«ŀäºī": 4054,
      "æģĴæĺŁ": 4055,
      "ç½ļ": 4056,
      "å§»": 4057,
      "åĮĸåĲĪçī©": 4058,
      "å¾Ģå¾Ģ": 4059,
      "ies": 4060,
      "è¯ŃçļĦ": 4061,
      "è¯Ĺäºº": 4062,
      "å®ı": 4063,
      "å¯¹å¤ĸ": 4064,
      "éľĢæ±Ĥ": 4065,
      "å¹¶åħ¥": 4066,
      "æĦıå¿Ĺ": 4067,
      "é¥Ń": 4068,
      "éĻĢ": 4069,
      "Ġ15": 4070,
      "1988": 4071,
      "æĴŃåĩº": 4072,
      "éģµ": 4073,
      "æŃ¦æ±ī": 4074,
      "çļĦä¸Ģç§į": 4075,
      "æī©å¤§": 4076,
      "èľĢ": 4077,
      "åĤħ": 4078,
      "äºļåİĨå±±": 4079,
      "é¸¿": 4080,
      "æ·±åľ³": 4081,
      "ä¹ĭä¸Ń": 4082,
      "å¹´æĿ¥": 4083,
      "çŁ³æ²¹": 4084,
      "çļĦåľ°æĸ¹": 4085,
      "åĳ¨å¹´": 4086,
      "æ¶¦": 4087,
      "åĲĮæĢ§": 4088,
      "ens": 4089,
      "åĥ§": 4090,
      "çĽ´èĩ³": 4091,
      "ä¹¦ç±į": 4092,
      "ass": 4093,
      "è¾ĥä¸º": 4094,
      "çļĦéĹ®é¢ĺ": 4095,
      "çĦ¦": 4096,
      "è¿Ľè¡ĮäºĨ": 4097,
      "æĦıè§ģ": 4098,
      "ĠâĢł": 4099,
      "å¾·éĩĮ": 4100,
      "åįģåŃĹ": 4101,
      "é£Łåĵģ": 4102,
      "ç»ĦåĲĪ": 4103,
      "èĨľ": 4104,
      "åĩŃ": 4105,
      "çĽ¾": 4106,
      "éģĹäº§": 4107,
      "çĨĬ": 4108,
      "çĶ¸": 4109,
      "å²Ĺ": 4110,
      "åıĶ": 4111,
      "åĪ·": 4112,
      "åĶ±çīĩ": 4113,
      "æµ·å²¸": 4114,
      "çļĦåİĨåı²": 4115,
      "ç¦ħ": 4116,
      "æĽ´åĬł": 4117,
      "æĪıåī§": 4118,
      "col": 4119,
      "å£¤": 4120,
      "Ġèĩª": 4121,
      "å·¥äºº": 4122,
      "BA": 4123,
      "Ġä¸İ": 4124,
      "å¹³åı°": 4125,
      "èį¯çī©": 4126,
      "åİŁä½ı": 4127,
      "æŃ£åľ¨": 4128,
      "å¡«": 4129,
      "çĽ¸äºĴ": 4130,
      "èĸĦ": 4131,
      "ç¬ĳ": 4132,
      "åįİäºº": 4133,
      "è½°": 4134,
      "æ¸Ķ": 4135,
      "ç½ĳè·¯": 4136,
      "æīĢè°ĵ": 4137,
      "ç¦Ħ": 4138,
      "å¨ģèĥģ": 4139,
      "æľºåĻ¨": 4140,
      "Ġto": 4141,
      "è¶ĭ": 4142,
      "é¦ĸçĽ¸": 4143,
      "æ¶ħ": 4144,
      "åĨľæ°ĳ": 4145,
      "åĬ³åĬ¨": 4146,
      "å¤§è§Ħæ¨¡": 4147,
      "äº¿ç¾İåħĥ": 4148,
      "åľ°éľĩ": 4149,
      "ä¸Ńæľī": 4150,
      "æĢ»éĥ¨": 4151,
      "åī©": 4152,
      "åįģä¸ĥ": 4153,
      "ä»İäºĭ": 4154,
      "ä¿ĺ": 4155,
      "åĲĮä¸Ģ": 4156,
      "èĹ©": 4157,
      "èµ¢": 4158,
      "å°ıçļĦ": 4159,
      "é«ĺéĢŁåħ¬è·¯": 4160,
      "62": 4161,
      "Ġon": 4162,
      "ç¥ŀè¯Ŀ": 4163,
      "åĴĮåħ¶ä»ĸ": 4164,
      "éĶĻè¯¯": 4165,
      "å¤§å¤ļ": 4166,
      "å®Įæķ´": 4167,
      "ä¸»è¦ģçļĦ": 4168,
      "è¡į": 4169,
      "åİŁå§ĭ": 4170,
      "Ġå°ı": 4171,
      "æµ·æĭĶ": 4172,
      "å¦Ĥä¸ĭ": 4173,
      "69": 4174,
      "çĳŀåħ¸": 4175,
      "ç¢į": 4176,
      "TV": 4177,
      "æŁıæŀĹ": 4178,
      "å¤ªå¹³æ´ĭ": 4179,
      "ä¸»æĿĥ": 4180,
      "ial": 4181,
      "Ġ2014": 4182,
      "é£Łçī©": 4183,
      "è¥¿èĹı": 4184,
      "æľ´": 4185,
      "æľĢå¤ļ": 4186,
      "åľ°ä¸ĭ": 4187,
      "åį³ä½¿": 4188,
      "å®ŀéªĮå®¤": 4189,
      "ä¸²": 4190,
      "53": 4191,
      "çļĦåħ³ç³»": 4192,
      "çľŁæŃ£": 4193,
      "1982": 4194,
      "éĢĨ": 4195,
      "å±±åĮº": 4196,
      "1985": 4197,
      "ãĥ¼": 4198,
      "æĪĲç»©": 4199,
      "çĶŁæĢģ": 4200,
      "çº¿çļĦ": 4201,
      "èµĦæľ¬": 4202,
      "AR": 4203,
      "å¾Ĺä¸»": 4204,
      "ä¹Łå°±æĺ¯": 4205,
      "ç¼ºä¹ı": 4206,
      "ä¼Ĺå¤ļ": 4207,
      "å°ī": 4208,
      "åºŀ": 4209,
      "æı¡": 4210,
      "éĩįå»º": 4211,
      "hy": 4212,
      "æıĲåįĩ": 4213,
      "éĻįä½İ": 4214,
      "ant": 4215,
      "æ¯«ç±³": 4216,
      "ä¸Ńéĥ¨": 4217,
      "è²Į": 4218,
      "æ¶Īæģ¯": 4219,
      "æĬķåħ¥": 4220,
      "åŁİåĮº": 4221,
      "è¯ı": 4222,
      "%ï¼Ľ": 4223,
      "Ġ2009": 4224,
      "æĮĤ": 4225,
      "æĪĺçķ¥": 4226,
      "çĽ¸ä¿¡": 4227,
      "ä¾į": 4228,
      "åĸ·": 4229,
      "è´«": 4230,
      "èĪĴ": 4231,
      "ç¾İæľ¯": 4232,
      "åĿĬ": 4233,
      "ä¸ĵå®¶": 4234,
      "eg": 4235,
      "Ġä»İ": 4236,
      "ç§ĳåŃ¦éĻ¢": 4237,
      "ä¸įä»ħ": 4238,
      "ä»ªå¼ı": 4239,
      "Ġä¸Ńåįİæ°ĳåĽ½": 4240,
      "éĩįå¤§": 4241,
      "æŃ»åĲİ": 4242,
      "å¹´è¢«": 4243,
      "Ġ2013": 4244,
      "æľªèĥ½": 4245,
      "èħĲ": 4246,
      "ä»Ĭå¤©": 4247,
      "æĹ¥åľ¨": 4248,
      "è®ºæĸĩ": 4249,
      "æĬķéĻį": 4250,
      "åĩłä¸ª": 4251,
      "è¡¨æĺİ": 4252,
      "åĽĽä¸ª": 4253,
      "çİĩé¢Ĩ": 4254,
      "çĥŃå¸¦": 4255,
      "èŀº": 4256,
      "å°Ŀ": 4257,
      "åİĭåĬĽ": 4258,
      "è¢«è®¤ä¸ºæĺ¯": 4259,
      "åĮ»çĸĹ": 4260,
      "èĭıæł¼åħ°": 4261,
      "å§Ĩæĸ¯": 4262,
      "Ġ2011": 4263,
      "æĢ§åĪ«": 4264,
      "äºĶå¹´": 4265,
      "æīĢæľīçļĦ": 4266,
      "52": 4267,
      "ä¹Łåľ¨": 4268,
      "èģĶèµĽ": 4269,
      "ä¿®æĶ¹": 4270,
      "æĪĲä¸ºäºĨ": 4271,
      "ont": 4272,
      "éĤ£ä¹Ī": 4273,
      "è¾Ĳ": 4274,
      "ä¸»ä¹īèĢħ": 4275,
      "ĠçļĦ": 4276,
      "æī°": 4277,
      "ĠAr": 4278,
      "åĪĨè£Ĥ": 4279,
      "72": 4280,
      "çĬ¶åĨµ": 4281,
      "çľĭåĪ°": 4282,
      "Ġ190": 4283,
      "æİ¥è§¦": 4284,
      "èµĲ": 4285,
      "çº¢èī²": 4286,
      "ä¼°è®¡": 4287,
      "å¯¨": 4288,
      "èº«ä½ĵ": 4289,
      "çĸı": 4290,
      "BS": 4291,
      "çļĦä¸Ģéĥ¨åĪĨ": 4292,
      "åłĨ": 4293,
      "èĳ¡èĲĦçīĻ": 4294,
      "åĩºåı£": 4295,
      "åºĬ": 4296,
      "å¼ºçĥĪ": 4297,
      "Ġde": 4298,
      "ä¸ºä¸Ģ": 4299,
      "æ¡ĥåĽŃ": 4300,
      "çī¹èī²": 4301,
      "çĴĥ": 4302,
      "æī®": 4303,
      "çº¿è·¯": 4304,
      "ä»·æł¼": 4305,
      "ä¾Ŀæį®": 4306,
      "ight": 4307,
      "ä¾¦": 4308,
      "ç»ıéªĮ": 4309,
      "ä¸Ģè¯į": 4310,
      "åį±æľº": 4311,
      "æĸ¯æĭī": 4312,
      "èĩªè¡Į": 4313,
      "\"|": 4314,
      "54": 4315,
      "å²ģçļĦ": 4316,
      "Ġ2002": 4317,
      "Ġ2016": 4318,
      "hant": 4319,
      "åĲ¸å¼ķ": 4320,
      "åı°ä¸Ń": 4321,
      "éĻ¢å£«": 4322,
      "å¯Ĩåº¦": 4323,
      "çīĻåĪ©": 4324,
      "ä¸»è¦ģæĺ¯": 4325,
      "åĮĪçīĻåĪ©": 4326,
      "è¯´æĺİ": 4327,
      "61": 4328,
      "éķ¿å®ĺ": 4329,
      "ond": 4330,
      "ä¾ĭåŃĲ": 4331,
      "ith": 4332,
      "åµ": 4333,
      "94": 4334,
      "ical": 4335,
      "ext": 4336,
      "æ¾³å¤§": 4337,
      "äººåĴĮ": 4338,
      "ç¾İåĨĽ": 4339,
      "ork": 4340,
      "In": 4341,
      "è¾ĵåħ¥": 4342,
      "åºŁéĻ¤": 4343,
      "åıĳèµ·": 4344,
      "èģĮåĬ¡": 4345,
      "æ³¢æĸ¯": 4346,
      "è¿Ļæł·çļĦ": 4347,
      "è½¦è¾Ĩ": 4348,
      "è¯ģæį®": 4349,
      "Ġh": 4350,
      "åŃ¤": 4351,
      "èĢĥè¯ķ": 4352,
      "ç¼ħ": 4353,
      "æ¶Į": 4354,
      "å¼ķçĶ¨": 4355,
      "ä»ĭç»į": 4356,
      "ä¿Ŀå®Ī": 4357,
      "age": 4358,
      "ç¤¾åĮº": 4359,
      "ä¿ĦåĽ½": 4360,
      "çİ°ä»Ĭ": 4361,
      "æµĭè¯ķ": 4362,
      "æĹ¥çļĦ": 4363,
      "æķĻå®Ĺ": 4364,
      "åľ°çļĦ": 4365,
      "cn": 4366,
      "ä»£è¡¨å¤§ä¼ļ": 4367,
      "æĹº": 4368,
      "ĠåĽ½éĻħ": 4369,
      "æĿī": 4370,
      "éĵŃ": 4371,
      "ç¡«": 4372,
      "é¢ĩ": 4373,
      "ç¨£": 4374,
      "æĹ¨": 4375,
      "å£«åħµ": 4376,
      "ä¹ĭåŃĲ": 4377,
      "åĨįåº¦": 4378,
      "ä¹¾éļĨ": 4379,
      "åı¦ä¸Ģä¸ª": 4380,
      "MA": 4381,
      "èĢ¶ç¨£": 4382,
      "æ¶¯": 4383,
      "æĤī": 4384,
      "æµħ": 4385,
      "æĶ¿åºľçļĦ": 4386,
      "èĪªå¤©": 4387,
      "å¯¹åºĶ": 4388,
      "è¢«è¿«": 4389,
      "åĲĪæĪĲ": 4390,
      "èµł": 4391,
      "åĵĪå°Ķ": 4392,
      "æĢĴ": 4393,
      "æĸ¯åŁº": 4394,
      "çĶ·æ¼Ķåĳĺ": 4395,
      "è¾¾æĪĲ": 4396,
      "èĢĹ": 4397,
      "åħ¶ä½Ļ": 4398,
      "èĭ¹": 4399,
      "æĶ¹åĸĦ": 4400,
      "æľĭåıĭ": 4401,
      "æ³ķçļĦ": 4402,
      "éķ¿åº¦": 4403,
      "åħ³æ³¨": 4404,
      "æµĭéĩı": 4405,
      "è¯ķéªĮ": 4406,
      "ue": 4407,
      "èĲ¨åħĭ": 4408,
      "åħ¬çĪµ": 4409,
      "æĪªèĩ³": 4410,
      "71": 4411,
      "äº§çĶŁçļĦ": 4412,
      "åľŁèĢ³": 4413,
      "åľ°è´¨": 4414,
      "æĬ½": 4415,
      "æģĲæĢ": 4416,
      "å½¼å¾Ĺ": 4417,
      "å£°æĺİ": 4418,
      "ä¼ļçļĦ": 4419,
      "é¦ĸåħĪ": 4420,
      "1987": 4421,
      "ç§°åĳ¼": 4422,
      "åĩĢ": 4423,
      "éĩĮäºļ": 4424,
      "æŃ¦å¸Ŀ": 4425,
      "åľŁèĢ³åħ¶": 4426,
      "çĶ³è¯·": 4427,
      "åĨĴ": 4428,
      "ĠEn": 4429,
      "åĸľæ¬¢": 4430,
      "ĠUniversity": 4431,
      "åŃ©åŃĲ": 4432,
      "çī¹åĪ«æĺ¯": 4433,
      "æĦŁæŁĵ": 4434,
      "çĽĹ": 4435,
      "æĻ¨": 4436,
      "1983": 4437,
      "1986": 4438,
      "éĻĦå±ŀ": 4439,
      "ç¨»": 4440,
      "çº¹": 4441,
      "æĽ´å¤ļ": 4442,
      "æĤ²": 4443,
      "å£³": 4444,
      "end": 4445,
      "Ġä¸Ģ": 4446,
      "ä¸ĭä»¤": 4447,
      "å¤ıåŃ£": 4448,
      "Ġå·´": 4449,
      "åĭĭç«ł": 4450,
      "Ã©": 4451,
      "èīºäºº": 4452,
      "85": 4453,
      "çĻĮ": 4454,
      "çŁ©": 4455,
      "æĽ¾åľ¨": 4456,
      "1979": 4457,
      "æĴŃæĶ¾": 4458,
      "92": 4459,
      "ai": 4460,
      "æĸĩèīº": 4461,
      "å·¥åİĤ": 4462,
      "å¼ıçļĦ": 4463,
      "éĶĢåĶ®": 4464,
      "ä¹Łè¢«": 4465,
      "å¤įåħ´": 4466,
      "å±±è¥¿": 4467,
      "å°ĶçļĦ": 4468,
      "int": 4469,
      "ç¥Ģ": 4470,
      "åŀĤ": 4471,
      "ä¹ĲåĽ¢": 4472,
      "æ¢¯": 4473,
      "åĬłå¼º": 4474,
      "è¥¿æ´ĭ": 4475,
      "ä¸»ä¹īçļĦ": 4476,
      "æī§æĶ¿": 4477,
      "æŁ¥çĲĨ": 4478,
      "ISBN": 4479,
      "æŃ£å¸¸": 4480,
      "èĲ¥è¿Ĳ": 4481,
      "åı²ä¸Ĭ": 4482,
      "åı¸æ³ķ": 4483,
      "æ°¯": 4484,
      "åĬĽåŃ¦": 4485,
      "çĳŀå£«": 4486,
      "å¾·åįİ": 4487,
      "ä¸ŃåİŁ": 4488,
      "çº³ç²¹": 4489,
      "è¯¢": 4490,
      "ä¸¤å²¸": 4491,
      "åħ¨å¸Ĥ": 4492,
      "æĬ¥éģĵ": 4493,
      "åıĤèĢĥ": 4494,
      "æĿ¡çĽ®": 4495,
      "çº¬": 4496,
      "æĳĩ": 4497,
      "ĠçĶŁå¹³": 4498,
      "éĤĢè¯·": 4499,
      "86": 4500,
      "180": 4501,
      "ĠCom": 4502,
      "Ġ2015": 4503,
      "å¿½": 4504,
      "çĭĹ": 4505,
      "Ġ2018": 4506,
      "åĨħæĪĺ": 4507,
      "åĪ¶å®ļ": 4508,
      "å©ļå§»": 4509,
      "æĽ¹æĵį": 4510,
      "é¢ľèī²": 4511,
      "ä¹Łä¸į": 4512,
      "æ³ķæ¡Ī": 4513,
      "å¸¦æĿ¥": 4514,
      "Ġæĺİ": 4515,
      "å¤§åŃ¦çļĦ": 4516,
      "74": 4517,
      "å®īæİĴ": 4518,
      "93": 4519,
      "BC": 4520,
      "åº·çĨĻ": 4521,
      "Ġg": 4522,
      "é¸£": 4523,
      "èĭ¹æŀľ": 4524,
      "Ġ&": 4525,
      "ç¥ŀç»ı": 4526,
      "éħįéŁ³": 4527,
      "æ±Łè¥¿": 4528,
      "ç§įæĹı": 4529,
      "æµ·å³¡": 4530,
      "Ġæľ¬": 4531,
      "èĢĥåı¤": 4532,
      "éĢ»è¾ĳ": 4533,
      "å¿į": 4534,
      "çĶµè¯Ŀ": 4535,
      "ç»ıæµİåŃ¦": 4536,
      "åī¯ä¸»å¸Ń": 4537,
      "éĦĤ": 4538,
      "åĬ²": 4539,
      "æľĢä¸º": 4540,
      "rom": 4541,
      "å¤©çĦ¶": 4542,
      "IS": 4543,
      "ä¿ĥè¿Ľ": 4544,
      "æ¸Ĭ": 4545,
      "ç³»ç»ŁçļĦ": 4546,
      "çī¹çļĦ": 4547,
      "æ¬£": 4548,
      "æŁĶ": 4549,
      "åľ¨åħ¶": 4550,
      "çŁ¥åĲį": 4551,
      "æ¹ĸåĮĹ": 4552,
      "åĪĨç¦»": 4553,
      "ç©·": 4554,
      "äºĨè§£": 4555,
      "æĬµè¾¾": 4556,
      "çĶŁçļĦ": 4557,
      "æĻ®æŁ¥": 4558,
      ")ãĢĤ": 4559,
      "Ġ2001": 4560,
      "åĢĻéĢī": 4561,
      "Ġ2019": 4562,
      "ĠéĢĿä¸ĸ": 4563,
      "ä»¥ä¸ĬçļĦ": 4564,
      "Ġ2017": 4565,
      "æĹ¥èµ·": 4566,
      "å½ĵå¹´": 4567,
      "çĲĨå·¥": 4568,
      "orm": 4569,
      "æĺİç¡®": 4570,
      "åĩī": 4571,
      "æľĪåĪĿ": 4572,
      "çİĽä¸½": 4573,
      "yle": 4574,
      "ĠåĩºçĶŁ": 4575,
      "ç¿¡": 4576,
      "å®¶çļĦ": 4577,
      "åĪĹä¼ł": 4578,
      "è¾Ĳå°Ħ": 4579,
      "1984": 4580,
      "è½¯ä½ĵ": 4581,
      "åħ¬ä¼Ĺ": 4582,
      "æĺ¥ç§ĭ": 4583,
      "ä¸¹éº¦": 4584,
      "åİ¥": 4585,
      "åĪ©çĽĬ": 4586,
      "åı¯èĥ½ä¼ļ": 4587,
      "æ¾³æ´²": 4588,
      "èħ¾": 4589,
      "åŀĭçļĦ": 4590,
      "çĽĳçĿ£": 4591,
      "èµĦäº§": 4592,
      "ä¼ļåĳĺ": 4593,
      "è¿ĽæŃ¥": 4594,
      "å¯Ħ": 4595,
      "çĮª": 4596,
      "é¹°": 4597,
      "åıĳçĶµ": 4598,
      "ç¿ģ": 4599,
      "æķĪæŀľ": 4600,
      "æķĻèĤ²éĥ¨": 4601,
      "1978": 4602,
      "ph": 4603,
      "ãĢĭï¼ļ": 4604,
      "çĶŁäºİ": 4605,
      "éĹ´çļĦ": 4606,
      "éģĵå¾·": 4607,
      "ç¿¡ç¿ł": 4608,
      "èĮĤ": 4609,
      "åĿļæĮģ": 4610,
      "ä¸¤åĽ½": 4611,
      "æģĲæĢĸ": 4612,
      "æĹ¥èĩ³": 4613,
      "ä¼ª": 4614,
      "-{}-": 4615,
      "OS": 4616,
      "äºĭè®°": 4617,
      "çļĦç¬¬ä¸Ģ": 4618,
      "æĸ°çĸĨ": 4619,
      "éĢļè®¯": 4620,
      "äº¤æį¢": 4621,
      "Ch": 4622,
      "æįĲ": 4623,
      "èĦĤ": 4624,
      "çģ«ç®Ń": 4625,
      "åĲİèĢħ": 4626,
      "çĲĨè§£": 4627,
      "çļĦä¸ī": 4628,
      "ä¸ĭè¾ĸ": 4629,
      "æıŃ": 4630,
      "ä¼ĬæľĹ": 4631,
      "å»Ĭ": 4632,
      "å°Ĩé¢Ĩ": 4633,
      "ide": 4634,
      "èİ·å¾ĹäºĨ": 4635,
      "äºĳåįĹ": 4636,
      "å°ıç»Ħ": 4637,
      "æĪĲæľ¬": 4638,
      "çŁĽ": 4639,
      "ä¿¡åı·": 4640,
      "èĦı": 4641,
      "å®ļä¸º": 4642,
      "ä¹īå¤§åĪ©": 4643,
      "åįłæĢ»äººåı£çļĦ": 4644,
      "âĢĻ": 4645,
      "åĪĽå»º": 4646,
      "èľĤ": 4647,
      "ç§ĺå¯Ĩ": 4648,
      "äº²çİĭ": 4649,
      "å¤§ä½¿": 4650,
      "æł¡åĽŃ": 4651,
      "ish": 4652,
      "åľ¨äºİ": 4653,
      "æŃ§": 4654,
      "çī©çĲĨåŃ¦": 4655,
      "ure": 4656,
      "åĨĽçļĦ": 4657,
      "è¿Ł": 4658,
      "æıĲåĲį": 4659,
      "åı·çº¿": 4660,
      "ä¸Ģèĩ´": 4661,
      "ä¼ĺåĬ¿": 4662,
      "æĪĺåĽ½": 4663,
      "åĳ½åĲįä¸º": 4664,
      "åľ£ç»ı": 4665,
      "ç½¢": 4666,
      "Ġæľī": 4667,
      "åĪ¸": 4668,
      "é«ĺä¸Ń": 4669,
      "ç²ĴåŃĲ": 4670,
      "éĤ£äºĽ": 4671,
      "èĢĮä¸į": 4672,
      "ãģ®": 4673,
      "ĠZ": 4674,
      "çļĦä¸Ń": 4675,
      "åĲ«æľī": 4676,
      "åįİçĽĽ": 4677,
      "æĤ¬": 4678,
      "79": 4679,
      "oh": 4680,
      "uc": 4681,
      "å¸Ĥéķ¿": 4682,
      "æĳĦå½±": 4683,
      "ç¬¬äºĮæ¬¡ä¸ĸçķĮå¤§æĪĺ": 4684,
      "æ´ģ": 4685,
      "è¥¿åĵ¥": 4686,
      "ä¾ĿçĦ¶": 4687,
      "è¿Ļæ¬¡": 4688,
      "Ġ2022": 4689,
      "çĪĨçĤ¸": 4690,
      "åįİçĽĽé¡¿": 4691,
      "ä¸ºæŃ¢": 4692,
      "éļ¾ä»¥": 4693,
      "è´£ä»»": 4694,
      "ç¬¦åĲĪ": 4695,
      "è°ĪåĪ¤": 4696,
      "Ġ2020": 4697,
      "ĠAl": 4698,
      "åĮĹäº¬å¸Ĥ": 4699,
      "å©Ĩ": 4700,
      "æ¶īåıĬ": 4701,
      "æĺ¯ä¸º": 4702,
      "ç§°ä½ľ": 4703,
      "ä»»æľŁ": 4704,
      "è´Ńä¹°": 4705,
      "çļĦä½ľåĵģ": 4706,
      "åŁİéķĩ": 4707,
      "ç¦»åŃĲ": 4708,
      "é¼İ": 4709,
      "çļĦæĶ¿æ²»": 4710,
      "åĨĽåĮº": 4711,
      "ä¿ĿåŃĺ": 4712,
      "åħ¶å®ŀ": 4713,
      "è§Ĥä¼Ĺ": 4714,
      "æĵİ": 4715,
      "æİĪäºĪ": 4716,
      "é½¿": 4717,
      "åįĳ": 4718,
      "æ¼ł": 4719,
      "äºļåİĨå±±å¤§": 4720,
      "ç©Ĩæĸ¯": 4721,
      "Windows": 4722,
      "Ġèĭ±åĽ½": 4723,
      "âĦ": 4724,
      "æİªæĸ½": 4725,
      "ä¸ĢåĪĩ": 4726,
      "å¹¶å°Ĩ": 4727,
      "æ°Ķæ¸©": 4728,
      "éĺĶ": 4729,
      "çĶ»å®¶": 4730,
      "åĲįä¹ī": 4731,
      "çĲĨäºĭ": 4732,
      "æıĲåĪ°": 4733,
      "å¤§å¥ĸ": 4734,
      "èĥ¡åĲĮ": 4735,
      "ä¾¨": 4736,
      "å¾Īå¿«": 4737,
      "èĩªèº«": 4738,
      "Ġ1990": 4739,
      "é«ĺéĽĦ": 4740,
      "èįĨ": 4741,
      "Ġ1999": 4742,
      "400": 4743,
      "73": 4744,
      "Ġ1998": 4745,
      "....": 4746,
      "è®¤è¯Ĩ": 4747,
      "è¾¹çķĮ": 4748,
      "åĩºçİ°åľ¨": 4749,
      "åİŁä½ıæ°ĳ": 4750,
      "è´´": 4751,
      "ä¼Ĭæĭīåħĭ": 4752,
      "å´©": 4753,
      "æ£ī": 4754,
      "å¾Īå¤§": 4755,
      "æī©å±ķ": 4756,
      "Ġåı¤": 4757,
      "ç»ĦæĪĲçļĦ": 4758,
      "èĤ¡ä»½": 4759,
      "ä¸Ī": 4760,
      "ä¹ĭä¸º": 4761,
      "æľĿå»·": 4762,
      "æ¶Ĥ": 4763,
      "åĲĦä¸ª": 4764,
      "æĦŁåĪ°": 4765,
      "æ··åĲĪ": 4766,
      "63": 4767,
      "èĩ³äºİ": 4768,
      "æŀļ": 4769,
      "åıĳè¾¾": 4770,
      "æ¶Īè´¹": 4771,
      "çĻ¾ä¸ĩ": 4772,
      "æ¾³å¤§åĪ©äºļ": 4773,
      "åħĨ": 4774,
      "æķ°åŃ¦å®¶": 4775,
      "åĽ½éĻħæľºåľº": 4776,
      "åıł": 4777,
      "çīµ": 4778,
      "å±Ĭåħ¨åĽ½": 4779,
      "è¿Ĳä½ľ": 4780,
      "ä¸Ĭè¿°": 4781,
      "èµĽåŃ£": 4782,
      "çļĦæĸ¹æ³ķ": 4783,
      "åĨ³è®®": 4784,
      "è¢«è§Ĩä¸º": 4785,
      "ç¨Ģ": 4786,
      "åħīç»ª": 4787,
      "ä¹Įåħĭåħ°": 4788,
      "çļĦæĹ¶éĹ´": 4789,
      "æĶ¿æ²»å±Ģ": 4790,
      "åĬĿ": 4791,
      "Ġå¤§äºĭè®°": 4792,
      "åĩºå¸Ń": 4793,
      "æĥŁ": 4794,
      "å£°éŁ³": 4795,
      "çĭĤ": 4796,
      "æĲ¬": 4797,
      "IC": 4798,
      "çĶ«": 4799,
      "Ġ1997": 4800,
      "å¤§æ¡¥": 4801,
      "Ġéķ¿": 4802,
      "æĺŁçļĦ": 4803,
      "åĺīä¹ī": 4804,
      "å»ºç«ĭäºĨ": 4805,
      "åľ¨é¦Ļæ¸¯": 4806,
      "150": 4807,
      "å§¬": 4808,
      "éŃĤ": 4809,
      "çĬ¬": 4810,
      "åĽºå®ļ": 4811,
      "å¤ķ": 4812,
      "å²Ľå±¿": 4813,
      "èĢķ": 4814,
      "çĽĨ": 4815,
      "åĩºèº«": 4816,
      "èĤº": 4817,
      "ç¨ĭå¼ı": 4818,
      "pt": 4819,
      "åĨĻä½ľ": 4820,
      "æĽ¾ä»»": 4821,
      "åįģå¤§": 4822,
      "å¸¸è§ģçļĦ": 4823,
      "åŃ¦ç³»": 4824,
      "é¼ł": 4825,
      "è§ĦèĮĥ": 4826,
      "èĭĳ": 4827,
      "å¯¹æŃ¤": 4828,
      "åĢ¡": 4829,
      "ld": 4830,
      "æĪĲå°±": 4831,
      "åŀĴ": 4832,
      "å¢¨è¥¿åĵ¥": 4833,
      "ĠåĴĮ": 4834,
      "éĻĨç»Ń": 4835,
      "çĤ¼": 4836,
      "ç»ĻäºĪ": 4837,
      "åĪĹä¸º": 4838,
      "æ°Ķä½ĵ": 4839,
      "åĲ¸æĶ¶": 4840,
      "mer": 4841,
      "é¸¦": 4842,
      "å»ºç«ĭçļĦ": 4843,
      "é¾Ł": 4844,
      "ĠPro": 4845,
      "æ¶µ": 4846,
      "çĬ¹å¤ªäºº": 4847,
      "èĪŀåı°": 4848,
      "æĦĪ": 4849,
      "å¹¿è¥¿": 4850,
      "èħ¹": 4851,
      "91": 4852,
      "ÃĹ": 4853,
      "Ġ2021": 4854,
      "æįŁå¤±": 4855,
      "ook": 4856,
      "é¼»": 4857,
      "çī¹å®ļ": 4858,
      "ä½ĵåĪ¶": 4859,
      "èµ¶": 4860,
      "æ±¡æŁĵ": 4861,
      "çªģåİ¥": 4862,
      "olog": 4863,
      "ear": 4864,
      "èĩªæĿĢ": 4865,
      "è¿ĲèĲ¥": 4866,
      "ä»İæŃ¤": 4867,
      "å¥¥æŀĹ": 4868,
      "åīįçļĦ": 4869,
      "AM": 4870,
      "æ¸ħåįİ": 4871,
      "ç¡ķå£«": 4872,
      "Ġæµ·": 4873,
      "Ġre": 4874,
      "ä¿Ŀç½Ĺ": 4875,
      "âĦĥ": 4876,
      "åĵ¥ä¼¦": 4877,
      "é©¬åħĭæĢĿ": 4878,
      "ER": 4879,
      "åĲŀ": 4880,
      "å«ģ": 4881,
      "ment": 4882,
      "å°±ä¼ļ": 4883,
      "åıĺå¾Ĺ": 4884,
      "æ£ĴçĲĥ": 4885,
      "æī¶": 4886,
      "çĶŁæ¶¯": 4887,
      "éħ¶": 4888,
      "éĩįè§Ĩ": 4889,
      "å°¸": 4890,
      "èĪ±": 4891,
      "1000": 4892,
      "æĽ´åĲįä¸º": 4893,
      "çªĹ": 4894,
      "åķĨåĵģ": 4895,
      "ern": 4896,
      "å¼ķæĵİ": 4897,
      "æ³³": 4898,
      "ĠäºĮ": 4899,
      "æŀĿ": 4900,
      "å¤§å°ı": 4901,
      "çłĶç©¶éĻ¢": 4902,
      "ä»£çłģ": 4903,
      "é»Ħéĩĳ": 4904,
      "æľĢæĹ©çļĦ": 4905,
      "å¥ĸé¡¹": 4906,
      "æĢģåº¦": 4907,
      "ä»¥ä¸º": 4908,
      "çĶµåĬĽ": 4909,
      "å¹´æĹ¶": 4910,
      "è¡ĮçļĦ": 4911,
      "ä¸ĭæĿ¥": 4912,
      "ç°": 4913,
      "åĵģçīĮ": 4914,
      "tern": 4915,
      "èµ¢å¾Ĺ": 4916,
      "Ġ,": 4917,
      "è¥¿å®ī": 4918,
      "åĩºçİ°äºĨ": 4919,
      "å½¢æĢģ": 4920,
      "éĽį": 4921,
      "ĠNew": 4922,
      "çĭ¼": 4923,
      "åį°åĪ·": 4924,
      "ational": 4925,
      "æīĵåĩ»": 4926,
      "å¯¹æĬĹ": 4927,
      "äºĴçĽ¸": 4928,
      "ĠSp": 4929,
      "ç¿¡ç¿łåı°": 4930,
      "éĩıåŃĲ": 4931,
      "æ´¾çļĦ": 4932,
      "å°¤åħ¶æĺ¯": 4933,
      "åħĭéĩĮ": 4934,
      "æķ¢": 4935,
      "æĬĳ": 4936,
      "äººåı£æĻ®æŁ¥": 4937,
      "å½¦": 4938,
      "é¡¾éĹ®": 4939,
      "æľ¬åľŁ": 4940,
      "è¿¦": 4941,
      "å¤©ä½ĵ": 4942,
      "ç§įç±»": 4943,
      "æ·¡æ°´": 4944,
      "ĠçĻ½": 4945,
      "å¥¶": 4946,
      "åĪĨåĪ«ä¸º": 4947,
      "å¥´éļ¶": 4948,
      "æĸĹäºī": 4949,
      "åħįè´¹": 4950,
      "ust": 4951,
      "2023": 4952,
      "åĽĽå¤§": 4953,
      "å¤ªåĲİ": 4954,
      "åĽ°éļ¾": 4955,
      "89": 4956,
      "èħĶ": 4957,
      "åĪĨæĶ¯": 4958,
      "çİ°ä»»": 4959,
      "ç¢Ł": 4960,
      "æİĪæĿĥ": 4961,
      "å®ļå¾ĭ": 4962,
      "éĻķè¥¿": 4963,
      "æĪĲéĥ½": 4964,
      "åı¯è§ģ": 4965,
      "ç¼ĸåı·": 4966,
      "1981": 4967,
      "éĩĬæĶ¾": 4968,
      "è¢Ńåĩ»": 4969,
      "pl": 4970,
      "æ³¡": 4971,
      "æ»¡è¶³": 4972,
      "éĿ¢å¯¹": 4973,
      "é¢ģå¥ĸ": 4974,
      "æĶ¶å½ķ": 4975,
      "ä¸Ģæ®µ": 4976,
      "èĥ½æºĲ": 4977,
      "åį³ä½į": 4978,
      "éħįåĲĪ": 4979,
      "åĬŀäºĭ": 4980,
      "æŀ¶æŀĦ": 4981,
      "æĸľ": 4982,
      "æĥ¨": 4983,
      "æ»ļ": 4984,
      "æī®æ¼Ķ": 4985,
      "è¯Ĭ": 4986,
      "åŁºéĩĳä¼ļ": 4987,
      "åŁ¹åħ»": 4988,
      "å¥Ķ": 4989,
      "èĢĮéĿŀ": 4990,
      "èĩªæ²»åĮº": 4991,
      "åĽ¾åĥı": 4992,
      "å¾ģæľį": 4993,
      "1958": 4994,
      "æ±īæĹı": 4995,
      "çģ«å±±": 4996,
      "å¦ĩå¥³": 4997,
      "éĻ¢æł¡": 4998,
      "æĮĩå¯¼": 4999,
      "æĪĲäºĨ": 5000,
      "åĮ»çĶŁ": 5001,
      "å´Ķ": 5002,
      "ç®±": 5003,
      "çł²": 5004,
      "å£«å°¼": 5005,
      "Ġ1996": 5006,
      "åĢ¾åĲĳ": 5007,
      "æĪĺå£«": 5008,
      "çĶ±æŃ¤": 5009,
      "åĿİ": 5010,
      "å½ĵå±Ģ": 5011,
      "å®īå¾½": 5012,
      "ä¿®å»º": 5013,
      "åıĳåĩº": 5014,
      "åĽ½åĨĽ": 5015,
      "éĢ¼": 5016,
      "è¿ĲçĶ¨": 5017,
      "1975": 5018,
      "éĥģ": 5019,
      "é¹¤": 5020,
      "å¹½": 5021,
      "åĬŀåħ¬å®¤": 5022,
      "æľīä¸Ģä¸ª": 5023,
      "æľĢä½İ": 5024,
      "Ġby": 5025,
      "åĩĿ": 5026,
      "åĪĨéħį": 5027,
      "æ»©": 5028,
      "ä¿®æŃ£": 5029,
      "åĽ½å®¶çº§": 5030,
      "éĺª": 5031,
      "èĢĮä¸įæĺ¯": 5032,
      "æĬ¥çº¸": 5033,
      "æī«": 5034,
      "åĳ¨è¾¹": 5035,
      "è¿ªå£«å°¼": 5036,
      "å·´è¥¿": 5037,
      "æī©å¼ł": 5038,
      "çİ°å®ŀ": 5039,
      "ç²¤è¯Ń": 5040,
      "å±łæĿĢ": 5041,
      "ain": 5042,
      "æīģ": 5043,
      "åĩłä½ķ": 5044,
      "å»ºåĽ½": 5045,
      "çıĬ": 5046,
      "ä¸ĢæĿ¡": 5047,
      "æĽ´ä¸º": 5048,
      "ä¸¤æ¬¡": 5049,
      "æīĭæ®µ": 5050,
      ")ãĢģ": 5051,
      "å®¢å®¶": 5052,
      "Ġåľ£": 5053,
      "èĥİ": 5054,
      "å¼ķåħ¥": 5055,
      "è¾Ł": 5056,
      "æĹıç¾¤": 5057,
      "æŃ£ç¡®": 5058,
      "Ġå½ĵ": 5059,
      "è¥¿æĸ¯": 5060,
      "äºĭæķħ": 5061,
      "ĠåĲİ": 5062,
      "ç©ºä¸Ń": 5063,
      "ä¾ł": 5064,
      "æķ´ä½ĵ": 5065,
      "ä¸¥æł¼": 5066,
      "è¾¨": 5067,
      "æĲº": 5068,
      "ä¹ĺå®¢": 5069,
      "çĢ": 5070,
      "è¶ĬæĿ¥": 5071,
      "å°Ĩä¼ļ": 5072,
      "iz": 5073,
      "é²į": 5074,
      "åĨ³èµĽ": 5075,
      "æī¾åĪ°": 5076,
      "åľ¨å¤§": 5077,
      "å°ĳå¥³": 5078,
      "ç±³å°Ķ": 5079,
      "åħ¸ç¤¼": 5080,
      "çº¦ä¸º": 5081,
      "éºŁ": 5082,
      "æ¸¯åı£": 5083,
      "åĵ²åŃ¦å®¶": 5084,
      "Ġ*": 5085,
      "åİŁçĲĨ": 5086,
      "æĿŃå·ŀ": 5087,
      "è¾°": 5088,
      "ãĢĭï¼ī": 5089,
      "èµĦæł¼": 5090,
      "æºĲèĩª": 5091,
      "è¶ĬæĿ¥è¶Ĭ": 5092,
      "CD": 5093,
      "åħ·ä½ĵ": 5094,
      "ç¼ĸçłģ": 5095,
      "ãĥ³": 5096,
      "å®ļçĲĨ": 5097,
      "ĠæĹ¥": 5098,
      "åĬ¨ä½ľ": 5099,
      "å¹´åĪĿ": 5100,
      "ç¾İåĽ½æĢ»ç»Ł": 5101,
      "èµĽäºĭ": 5102,
      "ly": 5103,
      "çļĦåŁºç¡Ģ": 5104,
      "æ¬§çĽŁ": 5105,
      "çĶ¨éĢĶ": 5106,
      "æĶ¶è´Ń": 5107,
      "ore": 5108,
      "Ġ1994": 5109,
      "ah": 5110,
      "ĠåĶĲ": 5111,
      "å¾·æĦıå¿Ĺ": 5112,
      "çī©çĲĨåŃ¦å®¶": 5113,
      "åĲĮä½į": 5114,
      "åħ³éĶ®": 5115,
      "æ¡ĵ": 5116,
      "ç§ģäºº": 5117,
      "NE": 5118,
      "âĢĺ": 5119,
      "å¿Į": 5120,
      "è½¬ç§»": 5121,
      "ä¸ŃæŃ£": 5122,
      "å¦Ī": 5123,
      "çİ»çĴĥ": 5124,
      "Ġ{": 5125,
      "çĲĨæĥ³": 5126,
      "åıĹæ¬¢è¿İ": 5127,
      "çķĻä¸ĭ": 5128,
      "æ·»": 5129,
      "ä¸Ĭåįĩ": 5130,
      "åĲ¯çĶ¨": 5131,
      "åħļçļĦ": 5132,
      "è¿ĲåĬ¨ä¼ļ": 5133,
      "é¸Ń": 5134,
      "å¹¿ä¸ľçľģ": 5135,
      "ä¼Ļ": 5136,
      "è¿ĻéĩĮ": 5137,
      "åĲįåįķ": 5138,
      "å¤§ä¼Ĺ": 5139,
      "ä¸Ĭå¸Ŀ": 5140,
      "æĳĨ": 5141,
      "è°Ń": 5142,
      "æīĺåĭĴ": 5143,
      "èı²å¾ĭ": 5144,
      "æİ¢æµĭ": 5145,
      "èı²å¾ĭå®¾": 5146,
      "çļĦç»ıæµİ": 5147,
      "å¦Ļ": 5148,
      "Ġå¯¹": 5149,
      "çļĦæĥħåĨµä¸ĭ": 5150,
      "æģŃ": 5151,
      "å¾ĭå¸Ī": 5152,
      "æ²¿æµ·": 5153,
      "æ¯ħ": 5154,
      "èİ·å¾ĹèĢħ": 5155,
      "å°ĳæķ°æ°ĳæĹı": 5156,
      "çļĦå¤ĸ": 5157,
      "æĿĨ": 5158,
      "ä»ĸæĺ¯": 5159,
      "éĽĢ": 5160,
      "å°Ķçī¹": 5161,
      "å¯¸": 5162,
      "è¦ĨçĽĸ": 5163,
      "åĿª": 5164,
      "å¥¥æŀĹåĮ¹": 5165,
      "çİ©å®¶": 5166,
      "è¥Ħ": 5167,
      "ä½ľåĩº": 5168,
      "åĬªåĬĽ": 5169,
      "ug": 5170,
      "ä»£çĲĨ": 5171,
      "åħŃå¹´": 5172,
      "Ġåħĥ": 5173,
      "ite": 5174,
      "æ³°åĽ½": 5175,
      "ç¢İ": 5176,
      "åıįæĺł": 5177,
      "å¹³éĿ¢": 5178,
      "åĨĻçļĦ": 5179,
      "ä¿±ä¹Ĳ": 5180,
      "ä¸ŃæľŁ": 5181,
      "ice": 5182,
      "èĢĮæĪĲ": 5183,
      "æľĢåĲİä¸Ģ": 5184,
      "Ġæ¸ħ": 5185,
      "Ġç»ıæµİ": 5186,
      "å°Ŀè¯ķ": 5187,
      "è®°å¿Ĩ": 5188,
      "æĬ¥å¯¼": 5189,
      "ĠæĸĩåĮĸ": 5190,
      "çļĦæµ·": 5191,
      "è½¬æį¢": 5192,
      "æ£ĢæŁ¥": 5193,
      "ost": 5194,
      "ä¸įåĪ°": 5195,
      "æİ¨å¹¿": 5196,
      "ä¸ĢåĲĮ": 5197,
      "æŃĮåī§": 5198,
      "å®°": 5199,
      "ence": 5200,
      "è£ħç½®": 5201,
      "è¯·æ±Ĥ": 5202,
      "æ¯ĶåĪ©": 5203,
      "ä¼Ĭæĸ¯åħ°æķĻ": 5204,
      "87": 5205,
      "æĥħæĬ¥": 5206,
      "æ³¢ç½Ĺ": 5207,
      "åħ¬åı¸çļĦ": 5208,
      "èĪŁ": 5209,
      "æ±ŁåįĹ": 5210,
      "æ´¾éģ£": 5211,
      "åħ´è¶£": 5212,
      "ber": 5213,
      "åĳ¨åĽ´": 5214,
      "Ġä¸ĸçķĮ": 5215,
      "1946": 5216,
      "èĸĽ": 5217,
      "Ġæ°´": 5218,
      "Ġèĭı": 5219,
      "82": 5220,
      "83": 5221,
      "ä¸İåħ¶ä»ĸ": 5222,
      "AC": 5223,
      "ä¸¤èĢħ": 5224,
      "1940": 5225,
      "æ¡£æ¡Ī": 5226,
      "çļĦå·¥ä½ľ": 5227,
      "å±ķç¤º": 5228,
      "æĬĹè®®": 5229,
      "ç©Ĩæĸ¯æŀĹ": 5230,
      "èģĺ": 5231,
      "éĩĳæĽ²": 5232,
      "å¸¦æľī": 5233,
      "æĬ¢": 5234,
      "éĢ¸": 5235,
      "èĢĮè¢«": 5236,
      "å°ļä¹¦": 5237,
      "åłª": 5238,
      "è¾ĸåĮº": 5239,
      "åĮĹå¸Ĥ": 5240,
      "Ġ1993": 5241,
      "åı¯ä»¥åľ¨": 5242,
      "ath": 5243,
      "çĤ¹çļĦ": 5244,
      "ä½ľæĽ²å®¶": 5245,
      "PS": 5246,
      "Ġ!": 5247,
      "äººå·¥": 5248,
      "åİĺ": 5249,
      "æĹłè®º": 5250,
      "æ¢µ": 5251,
      "Ġ1995": 5252,
      "èİ«æĸ¯ç§ĳ": 5253,
      "å¸Įçī¹": 5254,
      "è¿Ĳç®Ĺ": 5255,
      "éĵģéģĵ": 5256,
      "Ġstyle": 5257,
      "èĦ±ç¦»": 5258,
      "æīĳ": 5259,
      "å®īè£ħ": 5260,
      "ç»´æĬ¤": 5261,
      "åĽĽä¸ĸ": 5262,
      "åİĦ": 5263,
      "éĢļä¿¡": 5264,
      "åĽ¢éĺŁ": 5265,
      "ç¾İåĽ½çļĦ": 5266,
      "ä¹łæĥ¯": 5267,
      "æĶ¹éĢł": 5268,
      "è·µ": 5269,
      "act": 5270,
      "æºĥ": 5271,
      "ä¿ĿéĻ©": 5272,
      "æ»¡æ´²": 5273,
      "æĸĲ": 5274,
      "å·¢": 5275,
      "1930": 5276,
      "éĤª": 5277,
      "èģĶåĨĽ": 5278,
      "åıĺä¸º": 5279,
      "ç»Īäºİ": 5280,
      "ãĦ": 5281,
      "åĨĽå®ĺ": 5282,
      "å·²æľī": 5283,
      "çĮĽ": 5284,
      "äº²èĩª": 5285,
      "è¿Ĳæ²³": 5286,
      "åıĤè°ĭ": 5287,
      "å¯¹æīĭ": 5288,
      "å¤§éĩıçļĦ": 5289,
      "An": 5290,
      "çģĮ": 5291,
      "ç»Ŀå¯¹": 5292,
      "Ġåįİ": 5293,
      "æĮª": 5294,
      "åĲĮæĢ§æģĭ": 5295,
      "ç«ĭåľº": 5296,
      "),": 5297,
      "èµĦéĩĳ": 5298,
      "ä¼ĺç§Ģ": 5299,
      "Ġç¬¬ä¸Ģ": 5300,
      "ç¢±": 5301,
      "ĠPress": 5302,
      "å¾ªçİ¯": 5303,
      "åĲĮä½įç´ł": 5304,
      "åī§åľº": 5305,
      "ĠæĶ¿æ²»": 5306,
      "äººæĿĥ": 5307,
      "åº¦çļĦ": 5308,
      "æĻ®é²ģ": 5309,
      "æºĲäºİ": 5310,
      "èĬ±åĽŃ": 5311,
      "Ġ1991": 5312,
      "æīĺåĭĴå¯Ĩ": 5313,
      "æľºçļĦ": 5314,
      "åķĨäºº": 5315,
      "Ġä»¥": 5316,
      "aw": 5317,
      "ä¼ļéķ¿": 5318,
      "å§ļ": 5319,
      "ç«ĭåį³": 5320,
      "120": 5321,
      "åľ¨åı°æ¹¾": 5322,
      "éĹª": 5323,
      "ĠæŀĹ": 5324,
      "æĪĳçļĦ": 5325,
      "åĨ¬åŃ£": 5326,
      "èħĵ": 5327,
      "ics": 5328,
      "84": 5329,
      "åĢº": 5330,
      "çĻ½èī²": 5331,
      "å¤§å¹ħ": 5332,
      "éķĩåİĭ": 5333,
      "çĻ¾ç§ĳ": 5334,
      "å¤§éĿ©åĳ½": 5335,
      "å¥ł": 5336,
      "ä¾ĽåºĶ": 5337,
      "AS": 5338,
      "çļĦåľ°åĮº": 5339,
      "æĿ°åħĭ": 5340,
      "å¥¥æĸ¯åį¡": 5341,
      "è¡ĮæĶ¿éĻ¢": 5342,
      "Ġåĳ¨": 5343,
      "Ġ1992": 5344,
      "1920": 5345,
      "é£İéĻ©": 5346,
      "å£°ç§°": 5347,
      "çī©ä½ĵ": 5348,
      "å¥ĭ": 5349,
      "ä»ĬæĹ¥": 5350,
      "åīĬ": 5351,
      "çĤī": 5352,
      "å°ļæľª": 5353,
      "åģ¶åĥı": 5354,
      "çģŃäº¡": 5355,
      "å±Ī": 5356,
      "Ġäº¤éĢļ": 5357,
      "çŃīäºİ": 5358,
      "ä¸Ģçº§": 5359,
      "æŃĩ": 5360,
      "ä½ĨçĶ±äºİ": 5361,
      "éĤ£éĩĮ": 5362,
      "å¸ĥé²ģ": 5363,
      "Ġ1980": 5364,
      "åľ°å½¢": 5365,
      "1952": 5366,
      "å¹´åı·": 5367,
      "çľŁå®ŀ": 5368,
      "out": 5369,
      "Ġ[": 5370,
      "ĠæĿ¨": 5371,
      "æµ¸": 5372,
      "ç²Ĺ": 5373,
      "ä¿Ŀéļľ": 5374,
      "æĸ¯æĭīå¤«": 5375,
      "åĢĻéĢīäºº": 5376,
      "æľ¬åľ°": 5377,
      "å¹´é¾Ħ": 5378,
      "æĹ¬": 5379,
      "å¥³çİĭ": 5380,
      "åľ¨ä¸Ģ": 5381,
      "1937": 5382,
      "çĬ¯ç½ª": 5383,
      "çŁĽçĽ¾": 5384,
      "Ġæ±ī": 5385,
      "åıĳçİ°äºĨ": 5386,
      "è¸ª": 5387,
      "éķ¿åŃĲ": 5388,
      "çº¦çĳŁ": 5389,
      "ç¦ıå·ŀ": 5390,
      "åĲĦèĩª": 5391,
      "è±«": 5392,
      "çļĦäºĭ": 5393,
      "æĶ¹åĲįä¸º": 5394,
      "å§ľ": 5395,
      "éĢļçĶ¨": 5396,
      "èį¡": 5397,
      "åķ¡": 5398,
      "æķĪåºĶ": 5399,
      "å¹¶ä»¥": 5400,
      "å¸¸ä½ı": 5401,
      "æļĸ": 5402,
      "æº¯": 5403,
      "æĹħè¡Į": 5404,
      "åĮºåĪ«": 5405,
      "ä¸İåħ¶": 5406,
      "å¤§åİ¦": 5407,
      "åģĩè®¾": 5408,
      "æĿ¥åĪ°": 5409,
      "éĢĢåĩº": 5410,
      "éĵº": 5411,
      "çĪ±å¾·åįİ": 5412,
      "çĲĨåŃ¦": 5413,
      "çļĦæ°´": 5414,
      "å¹³çŃī": 5415,
      "å·¥ç¨ĭå¸Ī": 5416,
      "span": 5417,
      "çļĦæĶ¯æĮģ": 5418,
      "åĬ«": 5419,
      "æĬ±": 5420,
      "é£İæĻ¯": 5421,
      "èĽĭçĻ½è´¨": 5422,
      "ä»ĩ": 5423,
      "ä¸ŃåĽ½åĽ½æ°ĳåħļ": 5424,
      "ace": 5425,
      "æª": 5426,
      "ç¬¬åħ«": 5427,
      "éķ¿è¾¾": 5428,
      "å¤§åŃ¦æł¡åıĭ": 5429,
      "son": 5430,
      "åŃķ": 5431,
      "éĢīæīĭ": 5432,
      "åıĹä¼¤": 5433,
      "ire": 5434,
      "éĴ»": 5435,
      "äº¥": 5436,
      "æ¸¸è¡Į": 5437,
      "com": 5438,
      "åľ°çĤ¹": 5439,
      "æ¼Ķå¥ı": 5440,
      "ark": 5441,
      "1973": 5442,
      "åĽ½æĹĹ": 5443,
      "ä¼łæķĻ": 5444,
      "éĢĤåĲĪ": 5445,
      "ä¸ŃéĹ´": 5446,
      "çĻ¾åĪĨ": 5447,
      "åĮºåĪĨ": 5448,
      "å®ĺæĸ¹ç½ĳç«Ļ": 5449,
      "åĮĪå¥´": 5450,
      "åĽŀå¿Ĩ": 5451,
      "æĭ¿çł´": 5452,
      "ç»ĵæĿŁåĲİ": 5453,
      "åĽ½è¯Ń": 5454,
      "éĽĩ": 5455,
      "1948": 5456,
      "èĽĩ": 5457,
      "ction": 5458,
      "Ġåľ°çĲĨ": 5459,
      "Ġæĸĩ": 5460,
      "æĭ¿çł´ä»ĳ": 5461,
      "è®¤åĲĮ": 5462,
      "çĶ¨ä½ľ": 5463,
      "å¤ĸçļĦ": 5464,
      "èĬ¦": 5465,
      "åı¦ä¸Ģæĸ¹éĿ¢": 5466,
      "ç¥ŀåľ£": 5467,
      "æĪĲåĪĨ": 5468,
      "æ³ķå®ĺ": 5469,
      "éĩĳå±±": 5470,
      "åĲīå°Ķ": 5471,
      "ä¿±ä¹Ĳéĥ¨": 5472,
      "è§£æķ£": 5473,
      "é¸Łç±»": 5474,
      "çļĦåĲİ": 5475,
      "ä¸ĭåįĪ": 5476,
      "æľºåĪ¶": 5477,
      "AT": 5478,
      "åıªè¦ģ": 5479,
      "åĪĨåĪ«æĺ¯": 5480,
      "å¿ħè¦ģ": 5481,
      "åľ¨æĹ¥æľ¬": 5482,
      "è°¦": 5483,
      "Ġä¸º": 5484,
      "èįĲ": 5485,
      "åģ¿": 5486,
      "ç¨į": 5487,
      "ç£¨": 5488,
      "çĶŁæĪĲ": 5489,
      "æĸ¹çļĦ": 5490,
      "å¹³è¡¡": 5491,
      "å®īå¾·": 5492,
      "Ġç½Ĺ": 5493,
      "å¤¸": 5494,
      "ĠTh": 5495,
      "æĶ¹ç§°": 5496,
      "ä¹ĲéĺŁ": 5497,
      "ft": 5498,
      "åģ·": 5499,
      "çªģçł´": 5500,
      "æĭ¨": 5501,
      "æĺİæ²»": 5502,
      "å¨ĺ": 5503,
      "æĪĲç«ĭçļĦ": 5504,
      "ç¡®è®¤": 5505,
      "1955": 5506,
      "æİ¨è¡Į": 5507,
      "Ġ13": 5508,
      "çļĦæķħäºĭ": 5509,
      "å¾®è½¯": 5510,
      "åĴĸ": 5511,
      "å¥ĸå¾Ĺä¸»": 5512,
      "æĸ¯å¤§": 5513,
      "å®ļå±ħ": 5514,
      "éĤĳ": 5515,
      "81": 5516,
      "çİ°æĹ¶": 5517,
      "èľľ": 5518,
      "æĮĳæĪĺ": 5519,
      "çļĦé¦ĸ": 5520,
      "ä¼ļä¸Ĭ": 5521,
      "ä¸īå¤§": 5522,
      "åĪĹåħ¥": 5523,
      "ç§°ä¹ĭä¸º": 5524,
      "ãĢĢãĢĢ": 5525,
      "ĠåĽ½ç«ĭ": 5526,
      "æĶ¿æ²»å®¶": 5527,
      "ä»£çļĦ": 5528,
      "å¤§èĩ´": 5529,
      "æĬ¼": 5530,
      "å¤ļå¹´": 5531,
      "æĸĩçī©ä¿ĿæĬ¤": 5532,
      "è¯Ńç³»": 5533,
      "ĠPh": 5534,
      "ä¸Ĭæľī": 5535,
      "äº¦æĺ¯": 5536,
      "å»ºçŃĳçī©": 5537,
      "å»ºäºİ": 5538,
      "æĸ©": 5539,
      "1976": 5540,
      "æİĮæı¡": 5541,
      "æ³¢éŁ³": 5542,
      "çļĦçĶµ": 5543,
      "çģ«æĺŁ": 5544,
      "å¸ĥæĭī": 5545,
      "æµģä¼ł": 5546,
      "çļĦè¯Ŀ": 5547,
      "å®Ľ": 5548,
      "æĮĩç¤º": 5549,
      "å¤§æ°Ķ": 5550,
      "å¾ĹçŁ¥": 5551,
      "ä¹¦ä¸Ń": 5552,
      "åºıåĪĹ": 5553,
      "åįĴ": 5554,
      "è½°çĤ¸": 5555,
      "æłı": 5556,
      "æİĺ": 5557,
      "èģĶç½ĳ": 5558,
      "åĳĪçİ°": 5559,
      "æĸ¹ä¾¿": 5560,
      "éģĵçļĦ": 5561,
      "é¢ģå¸ĥ": 5562,
      "åĪĽæĸ°": 5563,
      "è©¹å§Ĩæĸ¯": 5564,
      "æĦıåĳ³": 5565,
      "å®£è¨Ģ": 5566,
      "1956": 5567,
      "éĵ¸": 5568,
      "æ¸¯éĵģ": 5569,
      "æĦıä¸º": 5570,
      "åĳ¨æģ©": 5571,
      "çĪ¶æ¯į": 5572,
      "äºĭå®ŀä¸Ĭ": 5573,
      "æĹ©å¹´": 5574,
      "æĸ¹éĿ¢çļĦ": 5575,
      "é©±éĢĲ": 5576,
      "cl": 5577,
      "å°ıå¹³": 5578,
      "orld": 5579,
      "ç§ģç«ĭ": 5580,
      "ĠâĢĶ": 5581,
      "è§Ĵåº¦": 5582,
      "çļĦä¸ĢäºĽ": 5583,
      "SS": 5584,
      "åıĳéŁ³": 5585,
      "ä½Ļäºº": 5586,
      "çĩĥæĸĻ": 5587,
      "èµ£": 5588,
      "å®ĥæĺ¯": 5589,
      "1977": 5590,
      "1967": 5591,
      "ach": 5592,
      "å¸ĥå°Ķ": 5593,
      "per": 5594,
      "è¤": 5595,
      "åĩºçĶŁäºİ": 5596,
      "Ġ<": 5597,
      "æİ¥æĶ¶": 5598,
      "éĹ²": 5599,
      "åĹ£": 5600,
      "åĬłå·ŀ": 5601,
      "æıĲä¾ĽäºĨ": 5602,
      "çŁ¶": 5603,
      "æ¼ĶåĮĸ": 5604,
      "éģĹä¼ł": 5605,
      "çĽ¸åħ³çļĦ": 5606,
      "åį±éĻ©": 5607,
      "æ²Īéĺ³": 5608,
      "ä½ıå®ħ": 5609,
      "å¥¥æŀĹåĮ¹åħĭ": 5610,
      "é¢ł": 5611,
      "éĿĴå²Ľ": 5612,
      "ç»³": 5613,
      "ä¸Ĭæĺł": 5614,
      "åĲįè¯į": 5615,
      "ci": 5616,
      "æĸ¥": 5617,
      "HK": 5618,
      "Ġç¬¬äºĮ": 5619,
      "åľ°éĿ¢": 5620,
      "ãĢĬãĢĭ": 5621,
      "âĪ": 5622,
      "é¥¼": 5623,
      "Ġ14": 5624,
      "å¸¸å¸¸": 5625,
      "å¤¹": 5626,
      "åĪĽå§ĭ": 5627,
      "è¾¹å¢ĥ": 5628,
      "1966": 5629,
      "æĸ¤": 5630,
      "åľ°åĽ¾": 5631,
      "é¢ĳçİĩ": 5632,
      "é¥®é£Ł": 5633,
      "Ġäººåı£": 5634,
      "çİĭåŃĲ": 5635,
      "å·¨å¤§": 5636,
      "ĠåĲ´": 5637,
      "ä¸ºé¦ĸ": 5638,
      "é©¬æĭī": 5639,
      "èĥ¸": 5640,
      "çĻ»éĻĨ": 5641,
      "Ġ1949": 5642,
      "å§Ĭ": 5643,
      "é¢ĺæĿĲ": 5644,
      "éĢ®": 5645,
      "åĨħåľ°": 5646,
      "ç»´å¥ĩ": 5647,
      "è¨Ģè®º": 5648,
      "Ġå¹´": 5649,
      "åĲĪæ³ķ": 5650,
      "èİ·å¥ĸ": 5651,
      "ç«ĭæĸ¹": 5652,
      "åİĨä»»": 5653,
      "æ´¾åĩº": 5654,
      "ne": 5655,
      "Ġ1989": 5656,
      "è´¢äº§": 5657,
      "æį·è¿Ĳ": 5658,
      "Ġæ¬§æ´²": 5659,
      "æĸĭ": 5660,
      "å·²çŁ¥": 5661,
      "é©¾é©¶": 5662,
      "ram": 5663,
      "è½¦éĺŁ": 5664,
      "éĵĥ": 5665,
      "æıĲåĩºäºĨ": 5666,
      "æľīè®¸å¤ļ": 5667,
      "é¾Ļæ±Ł": 5668,
      "åįıå®ļ": 5669,
      "è¯ģå®ŀ": 5670,
      "æľīæľº": 5671,
      "ä¼łç»ŁçļĦ": 5672,
      "å¼Ģè®¾": 5673,
      "Ġ-{": 5674,
      "éĺ²æŃ¢": 5675,
      "600": 5676,
      "ĠäºĶ": 5677,
      "èĭ±åĨĽ": 5678,
      "æĹ¥æľŁ": 5679,
      "è£ħå¤ĩ": 5680,
      "ç§įæ¤į": 5681,
      "æµģåŁŁ": 5682,
      "å¿ĺ": 5683,
      "åĵ¥ä¼¦æ¯Ķäºļ": 5684,
      "1939": 5685,
      "ium": 5686,
      "æī¹åĪ¤": 5687,
      "ĠåĮĹäº¬": 5688,
      "éº¦åħĭ": 5689,
      "å¼ĢéĢļ": 5690,
      "åħ³éĹŃ": 5691,
      "1954": 5692,
      "æĸĩçī©ä¿ĿæĬ¤åįķä½į": 5693,
      "çĳľ": 5694,
      "æĶ¿åıĺ": 5695,
      "å°¼åħĭ": 5696,
      "ode": 5697,
      "Ġå»¶ä¼¸": 5698,
      "æĿ¡ä¾ĭ": 5699,
      "æĹ¶ä»£çļĦ": 5700,
      "ä¸ŀ": 5701,
      "åŃĹç¬¦": 5702,
      "ç¯®çĲĥ": 5703,
      "ç»Ħå»º": 5704,
      "éªĳå£«": 5705,
      "çļĦå½¢å¼ı": 5706,
      "æ¬¡å¹´": 5707,
      "ä¸ĸçºªçļĦ": 5708,
      "åı¤èĢģ": 5709,
      "å¸¦é¢Ĩ": 5710,
      "æłĸ": 5711,
      "éķ¿å®ī": 5712,
      "ç¿Ķ": 5713,
      "1947": 5714,
      "pe": 5715,
      "æĺ¯åĽłä¸º": 5716,
      "çİ²": 5717,
      "ä¼łåªĴ": 5718,
      "çļĦæĥħåĨµ": 5719,
      "éģ¥": 5720,
      "Ġå®ĭ": 5721,
      "ree": 5722,
      "å¤ĦçĲĨåĻ¨": 5723,
      "ä¹ĲåĻ¨": 5724,
      "æ´Ľéĺ³": 5725,
      "åŃĲå¥³": 5726,
      "å®£ç§°": 5727,
      "çº¢åĨĽ": 5728,
      "æľĪçļĦ": 5729,
      "æľĪèĩ³": 5730,
      "çī¹åĮº": 5731,
      "ç»´å°Ķ": 5732,
      "ç®Ĺæ³ķ": 5733,
      "åĿĿ": 5734,
      "ç¾¤ä¼Ĺ": 5735,
      "èªĵ": 5736,
      "//": 5737,
      "çī¹çĤ¹": 5738,
      "ä¸ľåįĹäºļ": 5739,
      "Al": 5740,
      "åĵĢ": 5741,
      "åī§æĥħ": 5742,
      "1969": 5743,
      "1959": 5744,
      "æĶ¾å°Ħ": 5745,
      "åįĥç±³": 5746,
      "Ġæ³ķåĽ½": 5747,
      "ä¸ĳ": 5748,
      "éĢ¢": 5749,
      "æĹ¥åĲİ": 5750,
      "å·¥èīº": 5751,
      "ç¢§": 5752,
      "ä¸»æ¼Ķ": 5753,
      "ä¿Ŀè¯ģ": 5754,
      "æĺŃåĴĮ": 5755,
      "Un": 5756,
      "çİĭä½į": 5757,
      "çĪµå£«": 5758,
      "se": 5759,
      "è¢ĭ": 5760,
      "æĮĩæķ°": 5761,
      "æĿĢæŃ»": 5762,
      "éĺ²å¾¡": 5763,
      "æĹħå®¢": 5764,
      "çħ§çīĩ": 5765,
      "æĬµæĬĹ": 5766,
      "æİ¨ç¿»": 5767,
      "Ġk": 5768,
      "è¯¸ä¾¯": 5769,
      "åľ¨ä»ĸ": 5770,
      "ww": 5771,
      "å¸¸åĬ¡": 5772,
      "çĭŃ": 5773,
      "Ġæĺ¯": 5774,
      "ä¸ºåħ¶": 5775,
      "çłĤ": 5776,
      "çĽ¸å½ĵäºİ": 5777,
      "åĮĹæ´ĭ": 5778,
      "å¥³æŃĮæīĭ": 5779,
      "èĭıä¸¹": 5780,
      "æĤł": 5781,
      "çĭ¬ç«ĭçļĦ": 5782,
      "1941": 5783,
      "Ġ1988": 5784,
      "åĲı": 5785,
      "éĵħ": 5786,
      "ãĢĭãĢĬ": 5787,
      "800": 5788,
      "éģĵæķĻ": 5789,
      "å¿§": 5790,
      "ç»¿èī²": 5791,
      "é¼ĵåĬ±": 5792,
      "ç¼ħçĶ¸": 5793,
      "color": 5794,
      "oy": 5795,
      "Ġä¸»è¦ģ": 5796,
      "ata": 5797,
      "åĴĸåķ¡": 5798,
      "Ġr": 5799,
      "èĤĸ": 5800,
      "ung": 5801,
      "æľ¬äºº": 5802,
      "ç¦§": 5803,
      "ĠCol": 5804,
      "åħ¨ä¸ĸçķĮ": 5805,
      "éĤĵå°ıå¹³": 5806,
      "çĽ¸åĲĮçļĦ": 5807,
      "æĹ¶æĬ¥": 5808,
      "è£ħçĶ²": 5809,
      "å½¢çĬ¶": 5810,
      "åĳ¨æģ©æĿ¥": 5811,
      "å¯®": 5812,
      "æŀĦéĢł": 5813,
      "ãĢĤâĢľ": 5814,
      "èĤł": 5815,
      "çłĶç©¶ä¸Ńå¿ĥ": 5816,
      "åıĳçİ°çļĦ": 5817,
      "éĤµ": 5818,
      "åı¦æľī": 5819,
      "1972": 5820,
      "ubl": 5821,
      "åĽŀå½Ĵ": 5822,
      "çļĦåİŁåĽł": 5823,
      "ĠÐ": 5824,
      "ç»´åŁĥ": 5825,
      "æĹłçº¿çĶµè§Ĩ": 5826,
      "åľ¨åĮĹäº¬": 5827,
      "ile": 5828,
      "ä¸Ĭå¸Ĥ": 5829,
      "é»Ħæ²³": 5830,
      "åĬŀäºĭå¤Ħ": 5831,
      "éĽ¾": 5832,
      "ica": 5833,
      "1961": 5834,
      "å¹´çĶ±": 5835,
      "æĺ¯ä¸į": 5836,
      "ç½ĳé¡µ": 5837,
      "1968": 5838,
      "åĩºåıĳ": 5839,
      "åĪ°çļĦ": 5840,
      "é«ĺåİŁ": 5841,
      "æļ¨": 5842,
      "èķĥ": 5843,
      "ohn": 5844,
      "æłª": 5845,
      "éĢīåĮº": 5846,
      "åĨľæĿĳ": 5847,
      "èŁ": 5848,
      "é¡·": 5849,
      "ĠèĻ½çĦ¶": 5850,
      "æľĿé²ľåįĬå²Ľ": 5851,
      "åľ¨ä½į": 5852,
      "ä»¥åįĹ": 5853,
      "å¤ªå®Ĺ": 5854,
      "MP": 5855,
      "å½°åĮĸ": 5856,
      "æľĢé«ĺçļĦ": 5857,
      "éħĴåºĹ": 5858,
      "Ġå»¶ä¼¸éĺħè¯»": 5859,
      "ä¸ŃæľĢ": 5860,
      "äºĮäºº": 5861,
      "1965": 5862,
      "æĺ¾èĳĹ": 5863,
      "åĮĹå¹³": 5864,
      "åħļåĳĺ": 5865,
      "å¤ªç¥ĸ": 5866,
      "å¹²éĥ¨": 5867,
      "å²ģæĹ¶": 5868,
      "æĪĲéķ¿": 5869,
      "ĠSh": 5870,
      "æŃ»äºİ": 5871,
      "éĽħåħ¸": 5872,
      "å¤§éģĵ": 5873,
      "è¯įæ±ĩ": 5874,
      "ç§°åı·": 5875,
      "çĽĳå¯Ł": 5876,
      "Ġäºļ": 5877,
      "èĬ¬åħ°": 5878,
      "TS": 5879,
      "te": 5880,
      "çº§å¸Ĥ": 5881,
      "ä¸ľæ±ī": 5882,
      "çĲ¼": 5883,
      "å¤§åħ¬": 5884,
      "å½»åºķ": 5885,
      "åħ¨ä½ĵ": 5886,
      "çº¤": 5887,
      "ä¸¸": 5888,
      "æľĢè¿ĳ": 5889,
      "éĥ½åľ¨": 5890,
      "ux": 5891,
      "ox": 5892,
      "åĬłä»¥": 5893,
      "åĮħåĽ´": 5894,
      "åĲ¹": 5895,
      "ä¸ľäºļ": 5896,
      "åı²ç§°": 5897,
      "æ¶Īå¤±": 5898,
      "çªģçĦ¶": 5899,
      "çłģå¤´": 5900,
      "è§Ĥåħī": 5901,
      "ĠåĽ½çİĭ": 5902,
      "Ġåį·": 5903,
      "å¹´åĪ°": 5904,
      "æĶ¶è´¹": 5905,
      "éļľç¢į": 5906,
      "ĠæķĻèĤ²": 5907,
      "äº©": 5908,
      "åħĭèİ±": 5909,
      "å°±è¯»": 5910,
      "éĨĴ": 5911,
      "éĺ®": 5912,
      "ĠQ": 5913,
      "å½¢æĪĲäºĨ": 5914,
      "æĭ¼éŁ³": 5915,
      "ss": 5916,
      "åĸĩ": 5917,
      "æĮªå¨ģ": 5918,
      "äººæĸĩ": 5919,
      "çļĦä¸¤": 5920,
      "æĸĳ": 5921,
      "çĤŃ": 5922,
      "éĹ½åįĹ": 5923,
      "ä¸Ļ": 5924,
      "è°ģ": 5925,
      "åıī": 5926,
      "å¥¸": 5927,
      "çĹĩçĬ¶": 5928,
      "åľ¨ä¸Ń": 5929,
      "è´©": 5930,
      "çī¹æĢ§": 5931,
      "åħ¨ä¹¦": 5932,
      "åĮĹç¾İ": 5933,
      "æľĪçĲĥ": 5934,
      "å¾Īå°ĳ": 5935,
      "æĹ©æľŁçļĦ": 5936,
      "æĸ°åŁİ": 5937,
      "åķĨåĬ¡": 5938,
      "01": 5939,
      "åĨĽåĽ¢": 5940,
      "ä¼Ĺè®®éĻ¢": 5941,
      "ä¸Ģç³»åĪĹ": 5942,
      "äººä¸º": 5943,
      "åİĨåı²åŃ¦å®¶": 5944,
      "æĤ£èĢħ": 5945,
      "çİ°åľº": 5946,
      "æĮĩå®ļ": 5947,
      "å»ĸ": 5948,
      "1938": 5949,
      "åħĭçļĦ": 5950,
      "äº§éĩı": 5951,
      "çĽ¸åıį": 5952,
      "åĽŃåĮº": 5953,
      "åħµåĽ¢": 5954,
      "Ġ:": 5955,
      "ä¼ļæľī": 5956,
      "æŁ¬": 5957,
      "å©´": 5958,
      "åħ¼ä»»": 5959,
      "æ¬¡äºİ": 5960,
      "æ¨¡æĭŁ": 5961,
      "çĶµè½¦": 5962,
      "è´¨çĸĳ": 5963,
      "éĢĲæŃ¥": 5964,
      "é©³": 5965,
      "éĢ®æįķ": 5966,
      "PC": 5967,
      "ä¸Ģå®¶": 5968,
      "æ²ª": 5969,
      "æ¬¡åħ¨åĽ½": 5970,
      "éĤ±": 5971,
      "åĪĻä¸º": 5972,
      "éļıåį³": 5973,
      "æħİ": 5974,
      "åĨķ": 5975,
      "å®¡åĪ¤": 5976,
      "äººæŃ»äº¡": 5977,
      "æĹ¥ç¿¡ç¿łåı°": 5978,
      "æł¹æľ¬": 5979,
      "æİ¨è¿Ľ": 5980,
      "1957": 5981,
      "å±±åİ¿": 5982,
      "æĢ§èĥ½": 5983,
      "ä½¿çĶ¨èĢħ": 5984,
      "æĸ¯å¤§æŀĹ": 5985,
      "åįķä¸Ģ": 5986,
      "ä¸ĸçºªåĪĿ": 5987,
      "å¤©æĸĩåŃ¦å®¶": 5988,
      "èĭ¯": 5989,
      "æĹ©åľ¨": 5990,
      "éĻ·åħ¥": 5991,
      "ĠæĹł": 5992,
      "å§ĳ": 5993,
      "çļĦçĶµå½±": 5994,
      "æĶ¿åįı": 5995,
      "çĽ¸ç»§": 5996,
      "åħĥéŁ³": 5997,
      "é»ĳèī²": 5998,
      "åıĽä¹±": 5999,
      "æĻ®é²ģå£«": 6000,
      "åħ¬çº¦": 6001,
      "æīĢå±ŀ": 6002,
      "èģĮä½į": 6003,
      "ç»ĺçĶ»": 6004,
      "å¯»æī¾": 6005,
      "é¦ĸä½į": 6006,
      "åĮ»åŃ¦éĻ¢": 6007,
      "åħĭæŀĹ": 6008,
      "æł¼å¼ı": 6009,
      "çĵ·": 6010,
      "1971": 6011,
      "az": 6012,
      "Ġä¼Ĭ": 6013,
      "åŁĭ": 6014,
      "çİ°åŃĺ": 6015,
      "æĭľåįł": 6016,
      "é»ĳé¾Ļæ±Ł": 6017,
      "ä½¿åħ¶": 6018,
      "ä¿ĿåĬł": 6019,
      "åį¡æĭī": 6020,
      "åľ°å¸¦": 6021,
      "åħ¬å®ī": 6022,
      "è¶³å¤Ł": 6023,
      "çļĦæ¦Ĥå¿µ": 6024,
      "ä¸Ńè¢«": 6025,
      "æĢķ": 6026,
      "erv": 6027,
      "å§Ķä¹¦è®°": 6028,
      "èı©": 6029,
      "äºĴèģĶç½ĳ": 6030,
      "åĵª": 6031,
      "å®¡æŁ¥": 6032,
      "æĹıçļĦ": 6033,
      "1974": 6034,
      "äººæīį": 6035,
      "èĢĲ": 6036,
      "ç¬¬ä¸Ģä½į": 6037,
      "è¾ĸå¸Ĥ": 6038,
      "å±ħä½ıåľ¨": 6039,
      "ĠåĽ½å®¶": 6040,
      "ç±³äºļ": 6041,
      "1936": 6042,
      "ä»¥æŃ¤": 6043,
      "ç»Ħç»ĩçļĦ": 6044,
      "èŀįåĲĪ": 6045,
      "ç²®é£Ł": 6046,
      "å·«": 6047,
      "çº¦æľī": 6048,
      "æĢ¡": 6049,
      "åĲįäºº": 6050,
      "å¹¶ä¸įæĺ¯": 6051,
      "ä¸ĥå¹´": 6052,
      "å¾ĹåĪ°äºĨ": 6053,
      "æ¸¸å®¢": 6054,
      "æļ´åĬĽ": 6055,
      "ä¸»æĮģäºº": 6056,
      "å¸Įçī¹åĭĴ": 6057,
      "åĽ½éģĵ": 6058,
      "åĲĮå¿Ĺ": 6059,
      "æĸ°ç«¹": 6060,
      "èĤĮ": 6061,
      "æ³¨åĨĮ": 6062,
      "Ġä¸Ĭ": 6063,
      "çļĦåıį": 6064,
      "çŃīçº§": 6065,
      "åħ´èµ·": 6066,
      "æ»ĭ": 6067,
      "åĪĴåĪĨ": 6068,
      "äº§çĶŁäºĨ": 6069,
      "èīºæľ¯å®¶": 6070,
      "are": 6071,
      "è°¥": 6072,
      "å®´": 6073,
      "æĹĹä¸ĭ": 6074,
      "IN": 6075,
      "é«ĺæł¡": 6076,
      "ick": 6077,
      "åĤ¬": 6078,
      "æ³ķè¯Ń": 6079,
      "æıĲåıĬ": 6080,
      "è±¹": 6081,
      "ä»ĭçŁ³": 6082,
      "å½±è§Ĩ": 6083,
      "æ¶Ľ": 6084,
      "å¸ĤæĶ¿åºľ": 6085,
      "é©¬å°Ķ": 6086,
      "1964": 6087,
      "æĪĺåľº": 6088,
      "æ®·": 6089,
      "Ġat": 6090,
      "Ġ1986": 6091,
      "æ°Ł": 6092,
      "éĨĩ": 6093,
      "ä¸»å¯¼": 6094,
      "æķ°ä½į": 6095,
      "DP": 6096,
      "è´ª": 6097,
      "1944": 6098,
      "å¾·çļĦ": 6099,
      "åĬłå·¥": 6100,
      "çĲīçĲĥ": 6101,
      "äºīåıĸ": 6102,
      "use": 6103,
      "éĶħ": 6104,
      "åŁĥå°Ķ": 6105,
      "å¼Ģå¹ķ": 6106,
      "æ±Łèĭıçľģ": 6107,
      "ç«Ł": 6108,
      "äºĮæĪĺ": 6109,
      "è®¾å®ļ": 6110,
      "æĶ¾åľ¨": 6111,
      "æ³ķåħ°è¥¿": 6112,
      "åĽŀåºĶ": 6113,
      "æĶ»åįł": 6114,
      "æĿĢå®³": 6115,
      "çŃĸçķ¥": 6116,
      "åĨħèĴĻåı¤": 6117,
      "ock": 6118,
      "è¥¿éĩĮ": 6119,
      "äººæ°ĳå¸ģ": 6120,
      "åĪĻæľī": 6121,
      "ä½Ĩä»ĸ": 6122,
      "ĠCon": 6123,
      "åº¸": 6124,
      "åĪĨä¹ĭä¸Ģ": 6125,
      "åħĭæĭī": 6126,
      "åĺ´": 6127,
      "èĴĭä»ĭçŁ³": 6128,
      "ç«ĭæ³ķä¼ļ": 6129,
      "è¾ŀèģĮ": 6130,
      "1928": 6131,
      "åĪĴå½Ĵ": 6132,
      "ä¸½èİİ": 6133,
      "æĪĲæŀľ": 6134,
      "çİĩä¸º": 6135,
      "å¤§éĢī": 6136,
      "é©¬æĸ¯": 6137,
      "åĪĨæł¡": 6138,
      "æĸ°æķĻ": 6139,
      "é¢Ĩåľ°": 6140,
      "ç§¯åĪĨ": 6141,
      "çī²": 6142,
      "éĺ»æŃ¢": 6143,
      "ä¸ŃåŃĲ": 6144,
      "èĥº": 6145,
      "çĲĨæŁ¥": 6146,
      "æĿĥçļĦ": 6147,
      "AN": 6148,
      "ç»ıçĶ±": 6149,
      "ition": 6150,
      "æı´åĬ©": 6151,
      "pr": 6152,
      "æ¸ł": 6153,
      "èĩªç§°": 6154,
      "ĠåĽĽ": 6155,
      "åħ¬å¼ı": 6156,
      "åĨĽäºº": 6157,
      "å®ŀè·µ": 6158,
      "EE": 6159,
      "æĭĸ": 6160,
      "å¤©åłĤ": 6161,
      "ina": 6162,
      "å¹²çº¿": 6163,
      "ä¹ĭå¤Ħ": 6164,
      "çĮľ": 6165,
      "èº«ä¸º": 6166,
      "åħ±åĴĮåħļ": 6167,
      "æīĢåľ¨åľ°": 6168,
      "å¼Ģå±ķ": 6169,
      "é¢Ħè®¡": 6170,
      "åıĳåĬ¨æľº": 6171,
      "è¾¾å°Ķ": 6172,
      "æ¢¨": 6173,
      "åıĳå±ķçļĦ": 6174,
      "å£°ä¼ĺ": 6175,
      "è¯ĹæŃĮ": 6176,
      "åĸľåī§": 6177,
      "ä¸ŃåĽ½äººæ°ĳè§£æĶ¾åĨĽ": 6178,
      "å½¢æĪĲçļĦ": 6179,
      "åı¥ä¸½": 6180,
      "èĭıç»´åŁĥ": 6181,
      "å½ĵä»£": 6182,
      "è§Ĥå¿µ": 6183,
      "åŃĻä¸Ńå±±": 6184,
      "1953": 6185,
      "éĻĦè¿ĳçļĦ": 6186,
      "å½Ĺ": 6187,
      "æ¸¯åħĥ": 6188,
      "OM": 6189,
      "åįĹå®ĭ": 6190,
      "ç¥ł": 6191,
      "å¥¥å°Ķ": 6192,
      "å¯ĵ": 6193,
      "æĬĦ": 6194,
      "ä¸ĩåħĥ": 6195,
      "æķ´æķ°": 6196,
      "land": 6197,
      "åıĭå¥½": 6198,
      "è¶³çĲĥè¿ĲåĬ¨åĳĺ": 6199,
      "ä¸ºæŃ¤": 6200,
      "æ°¨": 6201,
      "çºº": 6202,
      ".,": 6203,
      "EC": 6204,
      "åĶ¯ä¸ĢçļĦ": 6205,
      "æľīèĳĹ": 6206,
      "å¤ļæł·": 6207,
      "ç»´åŁº": 6208,
      "row": 6209,
      "é«ĺè¾¾": 6210,
      "éĶĲ": 6211,
      "åīįåĲİ": 6212,
      "ç«ŀéĢī": 6213,
      "rap": 6214,
      "åįµ": 6215,
      "éĻįæ°´": 6216,
      "åıĳæĮ¥": 6217,
      "åĬłæĭī": 6218,
      "ĠCl": 6219,
      "ç´§æĢ¥": 6220,
      "ä¾£": 6221,
      "åħĥå¸ħ": 6222,
      "ç¦ıéŁ³": 6223,
      "è¹Ī": 6224,
      "ä¿ĿåĬłåĪ©äºļ": 6225,
      "ä¸Ģéĥ¨åĪĨ": 6226,
      "æµı": 6227,
      "æ°ĳè¿Ľ": 6228,
      "å¤ļé¡¹": 6229,
      "ç¾İåĽ½äºº": 6230,
      "éĽĨä½ĵ": 6231,
      "èī²å½©": 6232,
      "Ġä¸į": 6233,
      "ç¼Ķ": 6234,
      "åĪĹå®ģ": 6235,
      "ä¹¦åĨĻ": 6236,
      "å®ĥä»¬çļĦ": 6237,
      "è¯¦ç»Ĩ": 6238,
      "æłĹ": 6239,
      "ä¸ĵåĪ©": 6240,
      "1962": 6241,
      "è´¼": 6242,
      "æ·ĳ": 6243,
      "è¿ŀä»»": 6244,
      "ä¼¯çĪµ": 6245,
      "éħ·": 6246,
      "è¡Įä¸ļ": 6247,
      "å¾·æĭī": 6248,
      "å¥³ç¥ŀ": 6249,
      "é£ŁçĶ¨": 6250,
      "éĴ¢çĲ´": 6251,
      "èĪĮ": 6252,
      "å°±æľī": 6253,
      "ç»´ä¹Ł": 6254,
      "ä»¥åĮĹ": 6255,
      "Ġ1987": 6256,
      "ä¸ºåŁºç¡Ģ": 6257,
      "ä¸Ńå¤®å§Ķåĳĺä¼ļ": 6258,
      "çĻ¾å¹´": 6259,
      "æĢĢçĸĳ": 6260,
      "ĠçĽ®åīį": 6261,
      "çļĦåİŁ": 6262,
      "å°ĺ": 6263,
      "åĩºæĿ¥çļĦ": 6264,
      "æĢ»ä¹¦è®°": 6265,
      "åı«åģļ": 6266,
      "è¯ŀçĶŁ": 6267,
      "çİĭå®¤": 6268,
      "æģ°": 6269,
      "å¥ĸæľĢä½³": 6270,
      "è¾ĵåĩº": 6271,
      "çļĦç»ĵæŀľ": 6272,
      "ä¸ºäºº": 6273,
      "ç»´å¤ļ": 6274,
      "åºĨç¥Ŀ": 6275,
      "1933": 6276,
      "åħįçĸ«": 6277,
      "Ġå¾·åĽ½": 6278,
      "æĤŁ": 6279,
      ");": 6280,
      "ax": 6281,
      "æĺ¯ä¸ª": 6282,
      "ä¹Łæ²¡æľī": 6283,
      "æ±Ģ": 6284,
      "çī©çļĦ": 6285,
      "é¢Ħæµĭ": 6286,
      "äºĨè®¸å¤ļ": 6287,
      "åīª": 6288,
      "æ³ķåºŃ": 6289,
      "è¿Ļéĥ¨": 6290,
      "åľ¨ä¸Ģèµ·": 6291,
      "è½©": 6292,
      "ele": 6293,
      "å¤ļäºº": 6294,
      "ä¸īåįģ": 6295,
      "å£«é¡¿": 6296,
      "çĽĪ": 6297,
      "ä¹ĭåľ°": 6298,
      "æ±ĹåĽ½": 6299,
      "ict": 6300,
      "ä¹Įæĸ¯": 6301,
      "å¯¹åħ¶": 6302,
      "åħ«å¹´": 6303,
      "ä¼ļè¢«": 6304,
      "åĳĺå·¥": 6305,
      "åħĥé¦ĸ": 6306,
      "åį°å°¼": 6307,
      "åıĳåĶ®": 6308,
      "æľĢå¤ļçļĦ": 6309,
      "ä¾Ŀèµĸ": 6310,
      "ä¸ºä¸ŃåĽ½": 6311,
      "åºĩ": 6312,
      "èħº": 6313,
      "->": 6314,
      "æİł": 6315,
      "ä¸ĸçºªæľ«": 6316,
      "å¹´åĴĮ": 6317,
      "å¤§å¸Ī": 6318,
      "åįĹæµ·": 6319,
      "è¿ĩæ¸¡": 6320,
      "åľºæīĢ": 6321,
      "æĶ¶èĹı": 6322,
      "åįłæį®": 6323,
      "1951": 6324,
      "å¸ĪèĮĥå¤§åŃ¦": 6325,
      "sh": 6326,
      "å·©": 6327,
      "èĩªæĪĳ": 6328,
      "æĦ¤": 6329,
      "æħ°": 6330,
      "çļĦè®¾è®¡": 6331,
      "ç§©": 6332,
      "å¥İ": 6333,
      "ç¬¬ä¹Ŀ": 6334,
      "éĵĢ": 6335,
      "å½¢å®¹": 6336,
      "å¤ºå¾Ĺ": 6337,
      "åİ¦éĹ¨": 6338,
      "éĻª": 6339,
      "åĮĹå®ĭ": 6340,
      "æľĢéĩįè¦ģçļĦ": 6341,
      "å°¼è¥¿äºļ": 6342,
      "å¨ĥ": 6343,
      "åħ±äº§ä¸»ä¹ī": 6344,
      "ult": 6345,
      "text": 6346,
      "æĹ¥å¸¸": 6347,
      "è¾Ī": 6348,
      "æĴŀåĩ»": 6349,
      "èĥĢ": 6350,
      "ç±»çļĦ": 6351,
      "å¯ĨåĪĩ": 6352,
      "æŃ¥æŀª": 6353,
      "à¸": 6354,
      "åĿĤ": 6355,
      "ä¸ĵåĮº": 6356,
      "å¸ĥæĸ¯": 6357,
      "ä¹łä¿Ĺ": 6358,
      "éĶĢéĩı": 6359,
      "åĮºåĨħ": 6360,
      "çĿ¡": 6361,
      "ĠPl": 6362,
      "ĠEx": 6363,
      "700": 6364,
      "æ°®": 6365,
      "å¹¶æĹł": 6366,
      "è¯¸èĳĽ": 6367,
      "1935": 6368,
      "æ¼Ķè®²": 6369,
      "åĴı": 6370,
      "æĥħå½¢": 6371,
      "æĻ¯çĤ¹": 6372,
      "ä¾Ŀçħ§": 6373,
      "rit": 6374,
      "ĠçĶµå½±": 6375,
      "ï¼İ": 6376,
      "å±ķè§Ī": 6377,
      "åĪł": 6378,
      "ç»µ": 6379,
      "åįĹéĿŀ": 6380,
      "DNA": 6381,
      "åľ¨åĨħçļĦ": 6382,
      "åħĥæľĿ": 6383,
      "ĠæŃ£": 6384,
      "èĦĬ": 6385,
      "ç¤ºå¨ģ": 6386,
      "Cl": 6387,
      "ä¸Ģåº§": 6388,
      "ç¡®ç«ĭ": 6389,
      "çİ°åľ¨çļĦ": 6390,
      "å·²è¢«": 6391,
      "ä»»æĦı": 6392,
      "æĢ»è£ģ": 6393,
      "org": 6394,
      "åıĪåĲį": 6395,
      "ç¼ĸåī§": 6396,
      "åĲīæŀĹ": 6397,
      "å¹³æĸ¹ç±³": 6398,
      "åİ¿çļĦ": 6399,
      "æł¼æĭī": 6400,
      "èĭıå·ŀ": 6401,
      "å°ıåŀĭ": 6402,
      "çĲĥåľº": 6403,
      "ä¹Ŀå¹´": 6404,
      "ĠæŃ¤å¤ĸ": 6405,
      "åºļ": 6406,
      "éľŀ": 6407,
      "æ¯ıå¤©": 6408,
      "ä½İäºİ": 6409,
      "æľŃ": 6410,
      "çķľ": 6411,
      "è°Ĳ": 6412,
      "æĹ¥æľ¬çļĦ": 6413,
      "åĨ³çŃĸ": 6414,
      "æĬ«": 6415,
      "éĴĵ": 6416,
      "æĢ»åĢ¼": 6417,
      "æĽ´æĺ¯": 6418,
      "åĥļ": 6419,
      "ĠåĵĪ": 6420,
      "åĩºåĶ®": 6421,
      "160": 6422,
      "1963": 6423,
      "ĠçŁ³": 6424,
      "åİŁåĲį": 6425,
      "æĢ»éĿ¢ç§¯": 6426,
      "çŁ®": 6427,
      "åı°æ¹¾çļĦ": 6428,
      "å®Įå·¥": 6429,
      "åĲİæĿ¥çļĦ": 6430,
      "å·¨å¤§çļĦ": 6431,
      "å¯Įæ±Ĺ": 6432,
      "ton": 6433,
      "å°¿": 6434,
      "åĲİä¸ĸ": 6435,
      "åı·çļĦ": 6436,
      "ä¼ļè®®åĳĺ": 6437,
      "ĠçĽ¸åħ³æĿ¡çĽ®": 6438,
      "ix": 6439,
      "ç®¡çĲĨå±Ģ": 6440,
      "è¿ĲåĬ¨çļĦ": 6441,
      "æıĲåĩºçļĦ": 6442,
      "ç»Łæ²»èĢħ": 6443,
      "çĽĨåľ°": 6444,
      "ru": 6445,
      "å¹³æ°ĳ": 6446,
      "åħ¶ä¸ŃåĮħæĭ¬": 6447,
      "è¾½å®ģ": 6448,
      "ç¡®ä¿Ŀ": 6449,
      "åĲ¯åĬ¨": 6450,
      "iss": 6451,
      "æĻºæħ§": 6452,
      "æĭľåįłåºŃ": 6453,
      "ä¸Ľ": 6454,
      "éĹ®é¢ĺçļĦ": 6455,
      "æ¸ħä»£": 6456,
      "æ´Ľåħĭ": 6457,
      "é¹ı": 6458,
      "éļ¶å±ŀ": 6459,
      "çĲĨçĶ±": 6460,
      "åĽ½æ°ĳå°ıåŃ¦": 6461,
      "åŃĺåľ¨çļĦ": 6462,
      "å¼ĹæľĹ": 6463,
      "åħ¶ä¸º": 6464,
      "Ġ1982": 6465,
      "ON": 6466,
      "ä»£æĽ¿": 6467,
      "åħĭå°Ķ": 6468,
      "çŁ£": 6469,
      "ML": 6470,
      "å®ł": 6471,
      "åŃ¦éĥ¨": 6472,
      "åŃĻæĿĥ": 6473,
      "åĮĹæµ·": 6474,
      "ä»ħæ¬¡äºİ": 6475,
      "è¿Ŀåıį": 6476,
      "ood": 6477,
      "yst": 6478,
      "åĨĢ": 6479,
      "ï¼ļãĢĪ": 6480,
      "åĬłåĪ©": 6481,
      "åĨĽå§Ķ": 6482,
      "åī¯æĢ»ç»Ł": 6483,
      "ef": 6484,
      "å¿Ļ": 6485,
      "æĪĺäºīä¸Ń": 6486,
      "ä¸Ĭä¸ĭ": 6487,
      "åħ¬ç¤¾": 6488,
      "æıĲè®®": 6489,
      "çĥ·": 6490,
      "orn": 6491,
      "åĭĴæĸ¯": 6492,
      "æľĽè¿ľ": 6493,
      "IP": 6494,
      "æĶ¹åĲį": 6495,
      "æĶ¹è¿Ľ": 6496,
      "ĠHist": 6497,
      "ç»ıçĲĨ": 6498,
      "åĿĩä¸º": 6499,
      "åľ¨è¯¥": 6500,
      "æĪĲçĨŁ": 6501,
      "äº¬éĥ½": 6502,
      "é¹ħ": 6503,
      "ç»´ä¹Łçº³": 6504,
      "éŃģ": 6505,
      "æģ¨": 6506,
      "Î±": 6507,
      "ãĢĭ(": 6508,
      "å¹¶ä¸İ": 6509,
      "äºĶä¸ĸ": 6510,
      "æ¡Į": 6511,
      "çŁ³åĻ¨": 6512,
      "å¸ĿåĽ½çļĦ": 6513,
      "çłĸ": 6514,
      "æĢ»åı¸ä»¤": 6515,
      "æĻ¯è§Ĥ": 6516,
      "å°¹": 6517,
      "Ġ1985": 6518,
      "åįķçĭ¬": 6519,
      "å¸½": 6520,
      "çĽ´å¾Ħ": 6521,
      "å´ĩæĭľ": 6522,
      "1942": 6523,
      "æĻļä¸Ĭ": 6524,
      "åįıåķĨ": 6525,
      "çĶĺèĤĥ": 6526,
      "æľīçĿĢ": 6527,
      "æĶ¿åĬ¡": 6528,
      "æ¯ĶåĪ©æĹ¶": 6529,
      "åİ¢": 6530,
      "åģļåĩº": 6531,
      "çī¹åĪ«è¡ĮæĶ¿åĮº": 6532,
      "ä¸īç§į": 6533,
      "éĿ¢ä¸´": 6534,
      "Ġäºļæ´²": 6535,
      "è¥¿åħ°": 6536,
      "æľ¬ç§ĳ": 6537,
      "ä¸įè¦ģ": 6538,
      "é¢Ī": 6539,
      "ä¸ĺéĻµ": 6540,
      "çº·çº·": 6541,
      "æľĽè¿ľéķľ": 6542,
      "æĪļ": 6543,
      "è¯±": 6544,
      "ç¥¸": 6545,
      "æĦıå¤ĸ": 6546,
      "æĸĩåĮĸçļĦ": 6547,
      "èļĢ": 6548,
      "å®ŀåĬĽ": 6549,
      "åī§æľ¬": 6550,
      "æİĴåĪĹ": 6551,
      "å¥¥è¿Ĳä¼ļ": 6552,
      "æĺ¯ä»İ": 6553,
      "å¯¹æĸ¹": 6554,
      "çĻ¾å§ĵ": 6555,
      "æħķå®¹": 6556,
      "çķĮçļĦ": 6557,
      "äººä¸İ": 6558,
      "ä»ĸè®¤ä¸º": 6559,
      "åĳĬè¯ī": 6560,
      "æĪ¿å±ĭ": 6561,
      "OR": 6562,
      "Ġè¡ĮæĶ¿åĮºåĪĴ": 6563,
      "ãĢĤï¼ī": 6564,
      "ç¥ĸåħĪ": 6565,
      "åŁĶå¯¨": 6566,
      "å¤§å¸Ŀ": 6567,
      "åŃ¦å£«": 6568,
      "æ±Ŀ": 6569,
      "ä¿ĿæĬ¤åĮº": 6570,
      "æŁ¬åŁĶå¯¨": 6571,
      "Ð°": 6572,
      "èĲ¨æĸ¯": 6573,
      "Ġ1984": 6574,
      "çļĦæľĢ": 6575,
      "éĽĮ": 6576,
      "é¢ģåıĳ": 6577,
      "ç¼©åĨĻ": 6578,
      "åįİåĮĹ": 6579,
      "è¿½æº¯": 6580,
      "åĲİè¢«": 6581,
      "äºĭåıĺ": 6582,
      "æ¡Ĩ": 6583,
      "çĮ´": 6584,
      "è¾ĥä½İ": 6585,
      "æĻļæľŁ": 6586,
      "èĸª": 6587,
      "å«Į": 6588,
      "æĹ¥è¯Ń": 6589,
      "èĥĨ": 6590,
      "çĶŁçī©åŃ¦": 6591,
      "éĺĢ": 6592,
      "å¾ĹåĲį": 6593,
      "çĥ¯": 6594,
      "æľ¯è¯Ń": 6595,
      "çĶµè·¯": 6596,
      "ä¼ģåĽ¾": 6597,
      "å»¶ç»Ń": 6598,
      "ä¸Īå¤«": 6599,
      "çļĦéĥ¨åĪĨ": 6600,
      "åºĲ": 6601,
      "åľ°å¤Ħ": 6602,
      "é¢Ĥ": 6603,
      "éĺ³åİ¿": 6604,
      "åĪºæ¿Ģ": 6605,
      "gcolor": 6606,
      "åĴ¨": 6607,
      "ä»£æķ°": 6608,
      "èįĥ": 6609,
      "çłĶåıĳ": 6610,
      "å±Ģéķ¿": 6611,
      "æ³ķåħ°åħĭ": 6612,
      "äºĶä¸ª": 6613,
      "è¾ĥå¤§": 6614,
      "æ¾Ħ": 6615,
      "ç»´å¤ļåĪ©äºļ": 6616,
      "åĮĸåŃ¦å®¶": 6617,
      "èķ¾": 6618,
      "tp": 6619,
      "é«ĺäºİ": 6620,
      "æķĪçİĩ": 6621,
      "çļĦä¸į": 6622,
      "åŃĶåŃĲ": 6623,
      "Ġç¤¾ä¼ļ": 6624,
      "å¯¹ç§°": 6625,
      "éĤ¨": 6626,
      "ç»ĨèıĮ": 6627,
      "ĠEd": 6628,
      "ä¿Ĺç§°": 6629,
      "å¹´å¹³åĿĩ": 6630,
      "å®īä¸ľ": 6631,
      "æł¼åĭĴ": 6632,
      "å°ĳå°Ĩ": 6633,
      "ĠåİŁ": 6634,
      "èĩ³æŃ¤": 6635,
      "ç®¡åĪ¶": 6636,
      "è¸ı": 6637,
      "éĢĤåºĶ": 6638,
      "åįģæľĪ": 6639,
      "1932": 6640,
      "èĤ¤": 6641,
      "eng": 6642,
      "èĪŀè¹Ī": 6643,
      "Ġè¯¥": 6644,
      "Ġç¬¬ä¸ī": 6645,
      "å½±åĥı": 6646,
      "ame": 6647,
      "ç¥ĸçĪ¶": 6648,
      "æĵ¦": 6649,
      "æĸ¯å¡Ķ": 6650,
      "å°Ķå¤«": 6651,
      "èĴ²": 6652,
      "èĵ¬": 6653,
      "æĽ´å¤ļçļĦ": 6654,
      "è½¬åĲĳ": 6655,
      "one": 6656,
      "ä»ħæľī": 6657,
      "æĵħ": 6658,
      "çĶľ": 6659,
      "åľ¨è¥¿": 6660,
      "ä¹ĭä¹±": 6661,
      "çĽ¸åºĶ": 6662,
      "èĳµ": 6663,
      "æ¡Īä»¶": 6664,
      "çŁ©éĺµ": 6665,
      "å¤©åĲİ": 6666,
      "å®¢æĪ·": 6667,
      "å¯ĩ": 6668,
      "å±±åľ°": 6669,
      "åŀ¦": 6670,
      "æ´»è·ĥ": 6671,
      "åĲĮæĹ¶ä¹Ł": 6672,
      "çļĦä¸ŃåĽ½": 6673,
      "1927": 6674,
      "æĽ´æĸ°": 6675,
      "æ±ŁæĪ·": 6676,
      "æ´ĽæĿī": 6677,
      "Ġ1983": 6678,
      "ier": 6679,
      "è¯ŃéŁ³": 6680,
      "ç¿Į": 6681,
      "è®¾è®¡çļĦ": 6682,
      "ee": 6683,
      "åħ¬é¡·": 6684,
      "æ¼ı": 6685,
      "èĦ¸": 6686,
      "åĬŀæ³ķ": 6687,
      "æĹ¥æ²»": 6688,
      "ä½ľä¸ļ": 6689,
      "å±±å¸Ĥ": 6690,
      "æĮĩä»¤": 6691,
      "è¶ģ": 6692,
      "ä¸¤ä½į": 6693,
      "æ¼³": 6694,
      "é¡ºåºı": 6695,
      "æ´ĽæĿīçŁ¶": 6696,
      "åĲįèªī": 6697,
      "ãĢįï¼Ľ": 6698,
      "Ġå¤ļ": 6699,
      "ç©´": 6700,
      "åĬłåĵ¥": 6701,
      "éĺ¿éĩĮ": 6702,
      "èµĦåĬ©": 6703,
      "æĳ§": 6704,
      "ä»įæľī": 6705,
      "å±ĤçļĦ": 6706,
      "æĹ§ç§°": 6707,
      "Ġåħ«": 6708,
      "åĩ°": 6709,
      "ĠSch": 6710,
      "æĶ¶è§Ĩ": 6711,
      "ä¿®è®¢": 6712,
      "èĬĿåĬłåĵ¥": 6713,
      "ology": 6714,
      "çļĦåŁİå¸Ĥ": 6715,
      "åĩºåľŁ": 6716,
      "æĻ®åıĬ": 6717,
      "çĴĭ": 6718,
      "è¡°åıĺ": 6719,
      "å¤§æī¹": 6720,
      "åħ¨éķ¿": 6721,
      "çº¿æĢ§": 6722,
      "ä»¤äºº": 6723,
      "çķĻåľ¨": 6724,
      "æ°ĳè¿Ľåħļ": 6725,
      "å¤§å¤«": 6726,
      "çĵ¶": 6727,
      "éĿ©åĳ½åĨĽ": 6728,
      "Ġ1979": 6729,
      "ĠåĪĹä¼ł": 6730,
      "ç»¥": 6731,
      "arl": 6732,
      "è¶ħè¶Ĭ": 6733,
      "ç²¾çģµ": 6734,
      "Ġæľ±": 6735,
      "ä¸ĢçĻ¾": 6736,
      "çĲª": 6737,
      "æĮĸ": 6738,
      "ä¼łè¾ĵ": 6739,
      "èº«äº¡": 6740,
      "èµĽè½¦": 6741,
      "èıĬ": 6742,
      "ll": 6743,
      "åĽļ": 6744,
      "çĵ¦å°Ķ": 6745,
      "è´µå·ŀ": 6746,
      "æ²¿å²¸": 6747,
      "ç¾¤ä½ĵ": 6748,
      "ð«": 6749,
      "åĨ¶": 6750,
      "åı¤å¸ĮèħĬ": 6751,
      "å°ģä¸º": 6752,
      "æµĨ": 6753,
      "æŃ»åĪĳ": 6754,
      "èģĶç»ľ": 6755,
      "äº¤ç»Ļ": 6756,
      "äººæ°ĳä»£è¡¨å¤§ä¼ļ": 6757,
      "hem": 6758,
      "æķĮäºº": 6759,
      "åĸ»": 6760,
      "æ°¸è¿ľ": 6761,
      "åĿ¦åħĭ": 6762,
      "Ġæ¸ħæľĿ": 6763,
      "ä¿¡å¾Ĵ": 6764,
      "æī£": 6765,
      "æŀģä¸º": 6766,
      "çº³åħ¥": 6767,
      "æłĭ": 6768,
      "çİ°æľī": 6769,
      "éĤ»è¿ĳ": 6770,
      "æµ·ä¸Ĭ": 6771,
      "ç»§ä½į": 6772,
      "èĢģå¸Ī": 6773,
      "æĦ¿æĦı": 6774,
      "çļĦåĲįåŃĹ": 6775,
      "è¿Ļé¡¹": 6776,
      "å½ĵåľ°çļĦ": 6777,
      "é«ĺçº§ä¸ŃåŃ¦": 6778,
      "åľŃ": 6779,
      "å¸ĸ": 6780,
      "å¼ĹéĩĮ": 6781,
      "èģļéĽĨ": 6782,
      "å¹´é¦Ļæ¸¯": 6783,
      "åħ¶é¡¿": 6784,
      "å¾·è¯Ń": 6785,
      "å¨¶": 6786,
      "è¿ģèĩ³": 6787,
      "èµĶ": 6788,
      "ç¾İä¸½": 6789,
      "æĬĵ": 6790,
      "çĦļ": 6791,
      "æĹłéĻĲ": 6792,
      "å¸Ĥéķĩ": 6793,
      "åı·ä¸º": 6794,
      "è£ħé¥°": 6795,
      "æ¾İ": 6796,
      "èµ°åĲĳ": 6797,
      "åľ°åĲį": 6798,
      "éĢļéģĵ": 6799,
      "æµģåĬ¨": 6800,
      "æķ°åĢ¼": 6801,
      "éĵĿ": 6802,
      "æ¶ĪçģŃ": 6803,
      "å¸Ĳ": 6804,
      "æĢİ": 6805,
      "ä»ĸä¸İ": 6806,
      "æ¡Ĳ": 6807,
      "é¦ĸä¸ª": 6808,
      "éĺ¿å¯Įæ±Ĺ": 6809,
      "èĪªçº¿": 6810,
      "ĠèĢĮ": 6811,
      "åıĳè¨Ģ": 6812,
      "èģª": 6813,
      "ç¥¨æĪ¿": 6814,
      "æ¿ĢçĥĪ": 6815,
      "éĺ¿å°Ķå·´": 6816,
      "æĸĩéĿ©": 6817,
      "æł¹å»·": 6818,
      "Ġ1981": 6819,
      "ç£ģåľº": 6820,
      "æĹłçº¿çĶµ": 6821,
      "åħµåĬĽ": 6822,
      "è¾ħåĬ©": 6823,
      "Ġä¸ĭ": 6824,
      "Ġåį¡": 6825,
      "çļĦäººåı£": 6826,
      "äº¤åĵį": 6827,
      "çħĮ": 6828,
      "é¢Ħç®Ĺ": 6829,
      "04": 6830,
      "VD": 6831,
      "ä¼łå¥ĩ": 6832,
      "æ²Ļæ¼ł": 6833,
      "æĬĽ": 6834,
      "åı¤å·´": 6835,
      "æ¨±": 6836,
      "èĲ½æĪĲ": 6837,
      "ID": 6838,
      "åĪĨè§£": 6839,
      "1943": 6840,
      "1912": 6841,
      "å¦¥": 6842,
      "åĲĳéĩı": 6843,
      "08": 6844,
      "ron": 6845,
      "Ġå¥¥": 6846,
      "çļĦè¡Įä¸º": 6847,
      "çļĦè¯´æ³ķ": 6848,
      "åįķæĽ²": 6849,
      "ä¹ĭåĲİçļĦ": 6850,
      "è¯ĨåĪ«": 6851,
      "åĩ¤åĩ°": 6852,
      "Ġåı°": 6853,
      "Ġåħ¨": 6854,
      "æĪĲäºº": 6855,
      "æķĻç§ĳ": 6856,
      "åĵĪå°Ķæ»¨": 6857,
      "ä»ĸè¿ĺ": 6858,
      "Ġ2023": 6859,
      "ä¸Ńåįİæ°ĳåĽ½æĶ¿åºľ": 6860,
      "ç½Ĺæĸ¯ç¦ı": 6861,
      "è¯Ħä¼°": 6862,
      "ä¼¼ä¹İ": 6863,
      "èĪĨ": 6864,
      "éĢłæĪĲçļĦ": 6865,
      "ĉĉ": 6866,
      "ual": 6867,
      "Ġ}": 6868,
      "ä¸»åĬĽ": 6869,
      "ä¸»æµģ": 6870,
      "éĩĳåĪļ": 6871,
      "åįıè°ĥ": 6872,
      "æĶ»æīĵ": 6873,
      "æ£Ģå¯Ł": 6874,
      "ä¸»åĬŀ": 6875,
      "çĶµæ°Ķ": 6876,
      "è®¤åı¯": 6877,
      "ES": 6878,
      "æµĬ": 6879,
      "æĶ¯ä»ĺ": 6880,
      "æ°¸ä¹ħ": 6881,
      "çģŃç»Ŀ": 6882,
      "éĢīåĩº": 6883,
      "çĶŁéķ¿": 6884,
      "æĶ¶éĽĨ": 6885,
      "ç¦ıåĪ©": 6886,
      "çŃīçļĦ": 6887,
      "è¯´æĺ¯": 6888,
      "å½¢çļĦ": 6889,
      "çĶ¨ä»¥": 6890,
      "å§¿": 6891,
      "ç§ĺä¹¦éķ¿": 6892,
      "äºİæŃ¤": 6893,
      "åħĭéĩĮæĸ¯": 6894,
      "éĥ½åı¯ä»¥": 6895,
      "å®ģæ³¢": 6896,
      "02": 6897,
      "åħ¬ç½²": 6898,
      "éŁ¶": 6899,
      "ç£·": 6900,
      "110": 6901,
      "ä»İæľª": 6902,
      "åħīè°±": 6903,
      "æİ¨èįĲ": 6904,
      "å°Ħçº¿": 6905,
      "çļĦç¤¾ä¼ļ": 6906,
      "å¸Ĥä¸Ńå¿ĥ": 6907,
      "ä¼łåħ¥": 6908,
      "æŃ¥åħµ": 6909,
      "ä¹¡æĿĳ": 6910,
      "ĠãĢģ": 6911,
      "çķħ": 6912,
      "æ¸ħæ¥ļ": 6913,
      "ä¸Ģäºº": 6914,
      "ç¬¬åįģ": 6915,
      "éĩįå¤į": 6916,
      "æīĭæľº": 6917,
      "èĬĴ": 6918,
      "é²¸": 6919,
      "ä¸Ģéĥ¨": 6920,
      "ä¸ĭæ¸¸": 6921,
      "éªı": 6922,
      "éªļ": 6923,
      "åİĭç¼©": 6924,
      "åħ¥éĢī": 6925,
      "è´¢ç»ı": 6926,
      "Ġ1978": 6927,
      "AP": 6928,
      "å¹´æľ«": 6929,
      "éĥ¨éĥ¨éķ¿": 6930,
      "å±±çļĦ": 6931,
      "éĻ¤æŃ¤": 6932,
      "èĮħ": 6933,
      "ĠåŃĻ": 6934,
      "æĹ±": 6935,
      "åī¥": 6936,
      "åĮĸä¸º": 6937,
      "æĮģæľī": 6938,
      "åĻ¶": 6939,
      "åĢŁçĶ±": 6940,
      "ĠçĶ±": 6941,
      "å²ĽçļĦ": 6942,
      "æµİåįĹ": 6943,
      "ç±³åħ°": 6944,
      "ç¦¹": 6945,
      "ä¸ĸçķĮæĿ¯": 6946,
      "æĬĹæĪĺ": 6947,
      "å¾·å·Ŀ": 6948,
      "åĲīå°¼äºļ": 6949,
      "æīĵç®Ĺ": 6950,
      "çĶµæ±ł": 6951,
      "ä¸ĩç¾İåħĥ": 6952,
      "çľģçº§": 6953,
      "åħ·å¤ĩ": 6954,
      "åĶĲä»£": 6955,
      "å¤§éĺª": 6956,
      "çĲĨå¿µ": 6957,
      "æ¸¸åĩ»": 6958,
      "æĪĲç«ĭäºĨ": 6959,
      "å¦Ĥä»Ĭ": 6960,
      "è¯ģåĪ¸": 6961,
      "çºł": 6962,
      "åĬłéĢŁ": 6963,
      "ple": 6964,
      "è¾ĥå°ĳ": 6965,
      "èħ¿": 6966,
      "æīĵçł´": 6967,
      "è´¹çĶ¨": 6968,
      "åĢ¼å¾Ĺ": 6969,
      "rans": 6970,
      "çļĦåĨħå®¹": 6971,
      "äºļå½ĵ": 6972,
      "é¢Ĩå¯¼çļĦ": 6973,
      "çĭ®åŃĲ": 6974,
      "åĽĬ": 6975,
      "å®¶äºº": 6976,
      "éĢīä¸º": 6977,
      "åĽ¢ç»ĵ": 6978,
      "èĩªæŃ¤": 6979,
      "05": 6980,
      "æĨ": 6981,
      "çļĦæĢ»": 6982,
      "1929": 6983,
      "æĸĩå¸Ŀ": 6984,
      "èĢĮæĿ¥": 6985,
      "ä½Ľç½Ĺ": 6986,
      "æĴ°åĨĻ": 6987,
      "åĽ½åħ±": 6988,
      "è¿ĩçļĦ": 6989,
      "è¿½æ±Ĥ": 6990,
      "1918": 6991,
      "æĭĺ": 6992,
      "æĸ¯é¡¿": 6993,
      "ä¸Ńæµ·": 6994,
      "çĪ±åĽ½": 6995,
      "åĩºçİ°çļĦ": 6996,
      "åĪºåı²": 6997,
      "åĪĨæĪĲ": 6998,
      "ä¸ĩåĲ¨": 6999,
      "èĻ¹": 7000,
      "åħĪè¿Ľ": 7001,
      "éĹ»åĲį": 7002,
      "unt": 7003,
      "Ġè¿Ļ": 7004,
      "è·ĭ": 7005,
      "åĵģç§į": 7006,
      "æ°Ķè±¡": 7007,
      "é¥¶": 7008,
      "1931": 7009,
      "Ġed": 7010,
      "ä¸ºä¸Ńå¿ĥ": 7011,
      "ä¸¤å¹´": 7012,
      "å·´å°Ķ": 7013,
      "æŁ¥å°Ķæĸ¯": 7014,
      "å½ķéŁ³": 7015,
      "éĢĢä¼ĳ": 7016,
      "éĺ¿å°Ķå·´å°¼äºļ": 7017,
      "old": 7018,
      "Ġåħ¶ä¸Ń": 7019,
      "å¾·å°Ķ": 7020,
      "å·¥ä¼ļ": 7021,
      "èĭ±åĽ½çļĦ": 7022,
      "å¢ŀåĬłäºĨ": 7023,
      "rid": 7024,
      "æĸ¹ç¨ĭå¼ı": 7025,
      "åı²è®°": 7026,
      "èĻı": 7027,
      "çĶ·å¥³": 7028,
      "Ġ1945": 7029,
      "ä¸įåıĺ": 7030,
      "åħ±è¯Ĩ": 7031,
      "æŀģç«¯": 7032,
      "èĵĿèī²": 7033,
      "å··": 7034,
      "åĭŁ": 7035,
      "è¯¥åĽ½": 7036,
      "åł¤": 7037,
      "è§īå¾Ĺ": 7038,
      "éªĳåħµ": 7039,
      "å¾Ļ": 7040,
      "å¾Īå¤§çļĦ": 7041,
      "ĠæŃ¦": 7042,
      "å¿ĹæĦ¿": 7043,
      "Ġèĭ¥": 7044,
      "Ġéĥĳ": 7045,
      "æĥ§": 7046,
      "å¸¸å§Ķä¼ļ": 7047,
      "äºĮæ°§åĮĸ": 7048,
      "1934": 7049,
      "èŃ¦æĸ¹": 7050,
      "å¼Łå¼Ł": 7051,
      "yn": 7052,
      "Ġ1970": 7053,
      "Ġç¥ŀ": 7054,
      "éĺ³å¸Ĥ": 7055,
      "ç¹ģæ®ĸ": 7056,
      "çº¦çĳŁå¤«": 7057,
      "åĪĻåľ¨": 7058,
      "ä½¿çĶ¨äºĨ": 7059,
      "èµĦæľ¬ä¸»ä¹ī": 7060,
      "UN": 7061,
      "ä¹ĭæĦı": 7062,
      "åĮħæĭ¬äºĨ": 7063,
      "çªĿ": 7064,
      "CP": 7065,
      "äººä½ĵ": 7066,
      "åĳ¨åĪĬ": 7067,
      "èĴĻçī¹": 7068,
      "Ġbgcolor": 7069,
      "å§ĵæ°ı": 7070,
      "åĤ¨åŃĺ": 7071,
      "åı¯åĪĨä¸º": 7072,
      "éĩįçļĦ": 7073,
      "åŁİçļĦ": 7074,
      "èĻĲ": 7075,
      "å¼ķè¿Ľ": 7076,
      "è¯Ńæ³ķ": 7077,
      "æĦŁè§ī": 7078,
      "ç¥Ńç¥Ģ": 7079,
      "çº¿ä¸Ĭ": 7080,
      "åĩĨç¡®": 7081,
      "ä¸ģåł¡": 7082,
      "æĽ¿ä»£": 7083,
      "é©¬åħ¶é¡¿": 7084,
      "Ġå¼ķçĶ¨": 7085,
      "GB": 7086,
      "éĥ½è¢«": 7087,
      "å§ĭç»Ī": 7088,
      "å¹ķåºľ": 7089,
      "æİ©": 7090,
      "ä»»èģĮ": 7091,
      "è®¤ä¸ºæĺ¯": 7092,
      "åĪĨåĮº": 7093,
      "æł¼é²ģ": 7094,
      "å¤§äºİ": 7095,
      "ism": 7096,
      "åģļæ³ķ": 7097,
      "æĳ©å°Ķ": 7098,
      "http": 7099,
      "://": 7100,
      "çļĦå®ļä¹ī": 7101,
      "åı¤è¿¹": 7102,
      "è¡ĮæĶ¿éķ¿å®ĺ": 7103,
      "çĢĳ": 7104,
      "æĺĶ": 7105,
      "åĮĸçŁ³": 7106,
      "çĪ·": 7107,
      "æ¸¸æ³³": 7108,
      "07": 7109,
      "åĨ»": 7110,
      "ç¢°": 7111,
      "æĢ§åĴĮ": 7112,
      "åį¡æĸ¯": 7113,
      "çľĭæ³ķ": 7114,
      "å¹´ä¸Ń": 7115,
      "æķ°çĽ®": 7116,
      "å®ĺè¯Ŀ": 7117,
      "å·¡åĽŀ": 7118,
      "MS": 7119,
      "ãĢĤãĢĮ": 7120,
      "ä»ĸå¯¹": 7121,
      "éĴł": 7122,
      "åī§éĻ¢": 7123,
      "isc": 7124,
      "æķ´çĲĨ": 7125,
      "è·¯åĨĽ": 7126,
      "æĭħå¿ĥ": 7127,
      "ĠWorld": 7128,
      "èĢ³æĽ¼": 7129,
      "Ġi": 7130,
      "Ġçİ°ä»£": 7131,
      "çļĦæľī": 7132,
      "çļĦæīĢæľī": 7133,
      "å¤©çİĭ": 7134,
      "éĩĳåĥı": 7135,
      "è®¸åı¯": 7136,
      "æ¹ĸåįĹçľģ": 7137,
      "æĻ¶ä½ĵ": 7138,
      "åħ¨çº¿": 7139,
      "å®£åĳĬ": 7140,
      "çĶŁåŃĺ": 7141,
      "å¦ĸ": 7142,
      "Ġ1950": 7143,
      "æł¼éĩĮ": 7144,
      "å¤§è¥¿æ´ĭ": 7145,
      "ä¸»åĬ¨": 7146,
      "çī¹æĭī": 7147,
      "æľºåĬ¨": 7148,
      "ç½Ĺä¼¯çī¹": 7149,
      "ĠĠĠĠĠĠĠĠĠĠĠĠĠĠĠĠ": 7150,
      "ä¹ŁåĽłæŃ¤": 7151,
      "åħĭç½Ĺ": 7152,
      "éĢĶä¸Ń": 7153,
      "ech": 7154,
      "æĭ±": 7155,
      "æĥľ": 7156,
      "äº§çī©": 7157,
      "åĻ¨çļĦ": 7158,
      "é¥¥": 7159,
      "çĻ»åľº": 7160,
      "åĪĨå¸ĥåľ¨": 7161,
      "é¸¦çīĩ": 7162,
      "æ°´åĪ©": 7163,
      "é¦Ļæ¸¯çļĦ": 7164,
      "è¿ĳå¹´æĿ¥": 7165,
      "å¢ŀè®¾": 7166,
      "åħħæ»¡": 7167,
      "...": 7168,
      "æīĢéľĢ": 7169,
      "å¤©çļĦ": 7170,
      "å¯¼å¼¹": 7171,
      "è¾ĥé«ĺ": 7172,
      "åĥıæĺ¯": 7173,
      "Ġfrom": 7174,
      "Ġèµµ": 7175,
      "Ġth": 7176,
      "åĲ¾å°Ķ": 7177,
      "å¤©æ°Ķ": 7178,
      "èĽ®": 7179,
      "ä¸ĭäºĨ": 7180,
      "ç½Ĺå¾·": 7181,
      "æ¯ıæĹ¥": 7182,
      "ç»§ä»»": 7183,
      "å¯Įå£«": 7184,
      "å¿ĥçĲĨåŃ¦": 7185,
      "Ġä¸Ńå¤®": 7186,
      "çĶŁäº§æĢ»åĢ¼": 7187,
      "å¤ºåıĸ": 7188,
      "æ··ä¹±": 7189,
      "èĨ¨": 7190,
      "åİī": 7191,
      "éºĵ": 7192,
      "å®ĭæľĿ": 7193,
      "æĲŀ": 7194,
      "03": 7195,
      "å¼ĵ": 7196,
      "å®¶ä¸Ń": 7197,
      "è®®é¢ĺ": 7198,
      "å¤ªéĥİ": 7199,
      "çĨĶ": 7200,
      "å¡ŀå°Ķç»´äºļ": 7201,
      "å¦ĤåĲĮ": 7202,
      "ç¤¾ä¼ļçļĦ": 7203,
      "åį¸": 7204,
      "éĺİ": 7205,
      "æĺİä»£": 7206,
      "ĠAd": 7207,
      "åĪ¤æĸŃ": 7208,
      "ä¹ĭéĻħ": 7209,
      "å¹¿ä¹ī": 7210,
      "èĳ£äºĭéķ¿": 7211,
      "1925": 7212,
      "Ġå¹³": 7213,
      "çļĦåŃ¦çĶŁ": 7214,
      "åıĤè®®éĻ¢": 7215,
      "åĽ¾å½¢": 7216,
      "ations": 7217,
      "åĵģè´¨": 7218,
      "æ·±åħ¥": 7219,
      "amb": 7220,
      "Ġç§ĳ": 7221,
      "åİĨä»£": 7222,
      "å·²äºİ": 7223,
      "æĴ¤éĢĢ": 7224,
      "06": 7225,
      "åĿł": 7226,
      "ç§ĳåŃ¦æĬĢæľ¯": 7227,
      "èĢ¶å¾ĭ": 7228,
      "å¥¥æĸ¯æĽ¼": 7229,
      "åµĮ": 7230,
      "åĽŀåĽ½": 7231,
      "ä¹ĭä¸Ĭ": 7232,
      "èĤĿ": 7233,
      "åĭĺ": 7234,
      "å¼ŁåŃĲ": 7235,
      "Ð¾": 7236,
      "åİŁæĿ¥": 7237,
      "åĲĦç±»": 7238,
      "ï¼ĪãĢĬ": 7239,
      "åľ°åŁŁ": 7240,
      "åįĹè¶Ĭ": 7241,
      "âĢĿï¼ī": 7242,
      "èĭ¥å¹²": 7243,
      "ç¹ģèį£": 7244,
      "GN": 7245,
      "ä¸Ńå°Ĩ": 7246,
      "éĢ¾": 7247,
      "ä¹īåĬ¡": 7248,
      "è¡įçĶŁ": 7249,
      "çļĦéŁ³ä¹Ĳ": 7250,
      "æ°´åºĵ": 7251,
      "åĪĽå§ĭäºº": 7252,
      "line": 7253,
      "ä»»åĨħ": 7254,
      "æķ°åįģ": 7255,
      "å°±åı¯ä»¥": 7256,
      "åıįèĢĮ": 7257,
      "åı°æ¹¾çľģ": 7258,
      "ican": 7259,
      "ä¸ºå¤§": 7260,
      "è¥¿æ±ī": 7261,
      "é«ĺä¸½": 7262,
      "èģĤ": 7263,
      "äº¤æĺĵæīĢ": 7264,
      "âĪĴ": 7265,
      "æľªæľī": 7266,
      "åĨĻéģĵ": 7267,
      "éĵ¶æ²³": 7268,
      "æİ¢ç´¢": 7269,
      "ç§ĳæĬĢå¤§åŃ¦": 7270,
      "ç¦ıå»ºçľģ": 7271,
      "æ¬¡åħ¨åĽ½äººåı£æĻ®æŁ¥": 7272,
      "Ġé»ĳ": 7273,
      "å½ª": 7274,
      "è´¬": 7275,
      "ç²¾ç¡®": 7276,
      "çļĦä»£è¡¨": 7277,
      "è°Ĭ": 7278,
      "å¸¸çĶ¨": 7279,
      "âĢĿï¼Ľ": 7280,
      "åŁİåł¡": 7281,
      "Ġæį®": 7282,
      "éģŃåıĹ": 7283,
      "éĶ¦æłĩ": 7284,
      "æµĻæ±Łçľģ": 7285,
      "åİĺç±³": 7286,
      "Ġåı¦å¤ĸ": 7287,
      "æĻºèĥ½": 7288,
      "æĥ©": 7289,
      "å¹»æĥ³": 7290,
      "æ²ŁéĢļ": 7291,
      "Ã¡": 7292,
      "æĪĺè´¥": 7293,
      "æļĤæĹ¶": 7294,
      "Ġçº¢": 7295,
      "éĺŁä¼į": 7296,
      "éľľ": 7297,
      "èĪªçıŃ": 7298,
      "ä¸ľæµ·": 7299,
      "éĥ½ä¸į": 7300,
      "è§Ĩè§ī": 7301,
      "åĭ¾": 7302,
      "å¼ķåĬĽ": 7303,
      "èĹ»": 7304,
      "èĿ¶": 7305,
      "Ġä¸Ĭæµ·": 7306,
      "åı¯æ±Ĺ": 7307,
      "ĠMar": 7308,
      "åĨľåİĨ": 7309,
      "åĳ¼åĲ¸": 7310,
      "å¯»æ±Ĥ": 7311,
      "èĤ¡ä»½æľīéĻĲåħ¬åı¸": 7312,
      "åĲģ": 7313,
      "ä¸¾è¡ĮçļĦ": 7314,
      "åıĬåħ¶ä»ĸ": 7315,
      "çĪ±æĥħ": 7316,
      "è®½": 7317,
      "âĢ§": 7318,
      "å¤©åľ°": 7319,
      "é¦ĸä»»": 7320,
      "åŁł": 7321,
      "ä¹ĭç§°": 7322,
      "åħ¬äº¤": 7323,
      "å®ļäºĨ": 7324,
      "äºĶä»£": 7325,
      "ime": 7326,
      "çĩĥçĥ§": 7327,
      "æĺ¯ç¾İåĽ½": 7328,
      "1914": 7329,
      "ä¸İæŃ¤": 7330,
      "è¿Ļç±»": 7331,
      "æİĴè¡Į": 7332,
      "ãĢīãĢĤ": 7333,
      "éĤ®æĶ¿": 7334,
      "æŀ¢çº½": 7335,
      "çļĦæĦıæĢĿ": 7336,
      "äºĮæ¬¡": 7337,
      "åŁºæľ¬ä¸Ĭ": 7338,
      "è¡¥åħħ": 7339,
      "å¼¯": 7340,
      "åĲĪåĶ±": 7341,
      "éħ¿": 7342,
      "æ»¤": 7343,
      "ç¼ĸç¨ĭ": 7344,
      "èĪªç©ºåħ¬åı¸": 7345,
      "oci": 7346,
      "Ġæ³ķ": 7347,
      "å±¡": 7348,
      "ç¬Ľ": 7349,
      "æ¯Ĺ": 7350,
      "æķ°çłģ": 7351,
      "ä½ĵç§¯": 7352,
      "éĩįéĩı": 7353,
      "ĠCo": 7354,
      "åıĳçĶŁåľ¨": 7355,
      "å¼ĹéĽ·": 7356,
      "å¤ļä¸º": 7357,
      "è¿Ļæ®µ": 7358,
      "ild": 7359,
      "èĮĥåĽ´åĨħ": 7360,
      "ma": 7361,
      "çĻ»è®°": 7362,
      "å¹´åĩºçīĪ": 7363,
      "æııåĨĻ": 7364,
      "èĭį": 7365,
      "çĤ¸å¼¹": 7366,
      "Ġå¸Ĥ": 7367,
      "å¤ªåİŁ": 7368,
      "æĥħç»ª": 7369,
      "ä¼¤äº¡": 7370,
      "ä¸įå¾Ĺä¸į": 7371,
      "ä¹Łåı¯": 7372,
      "inux": 7373,
      "ç¤¾åĽ¢": 7374,
      "åĬ£": 7375,
      "çººç»ĩ": 7376,
      "èĵĦ": 7377,
      "çŁŃæļĤ": 7378,
      "ject": 7379,
      "Ġal": 7380,
      "æķĻç»ĥ": 7381,
      "å²Ľä¸Ĭ": 7382,
      "èĬĤåº¦": 7383,
      "çİĩåĨĽ": 7384,
      "åĪ¶åĵģ": 7385,
      "è¯Ńè¨ĢçļĦ": 7386,
      "ç¬¬ä¸Ģæ¬¡ä¸ĸçķĮå¤§æĪĺ": 7387,
      "éĨī": 7388,
      "éĢļçŁ¥": 7389,
      "ä¸¤å¤§": 7390,
      "åıįæĬĹ": 7391,
      "äºĶæľĪ": 7392,
      "ç»ĻäºĨ": 7393,
      "çļĦç¥ŀ": 7394,
      "è®¼": 7395,
      "èµĮ": 7396,
      "æīĭæľ¯": 7397,
      "æĹ¥èĢ³æĽ¼": 7398,
      "åĪĺå¤ĩ": 7399,
      "äººåĿĩ": 7400,
      "è¾¹ç¼ĺ": 7401,
      "æľ¬è´¨": 7402,
      "æĹłäºº": 7403,
      "èº«ä¸Ĭ": 7404,
      "åľŁåį«": 7405,
      "æĪĺæĸĹæľº": 7406,
      "åį°è±¡": 7407,
      "å«©": 7408,
      "ä½ĳ": 7409,
      "åħ¶ä»ĸçļĦ": 7410,
      "æķ£æĸĩ": 7411,
      "æī¬å·ŀ": 7412,
      "èı©èĲ¨": 7413,
      "é«ĺå®Ĺ": 7414,
      "å£«åĿ¦": 7415,
      "èįĢ": 7416,
      "çļĦçĶŁæ´»": 7417,
      "ç»ĳ": 7418,
      "è¯»èĢħ": 7419,
      "æĺ¯æľĢ": 7420,
      "é¢ĸ": 7421,
      "éĶ£": 7422,
      "åĵĪéĩĮ": 7423,
      "ç±»ä¼¼çļĦ": 7424,
      "çīł": 7425,
      "è°¨": 7426,
      "å§ĭäºİ": 7427,
      "å¼ºçļĦ": 7428,
      "åĮ»èį¯": 7429,
      "æĹĭè½¬": 7430,
      "æīĩ": 7431,
      "æķ´åĲĪ": 7432,
      "åħħåĪĨ": 7433,
      "able": 7434,
      "IT": 7435,
      "åıĤè§ģ": 7436,
      "ä¼ļè®®ä¸Ĭ": 7437,
      "çª¦": 7438,
      "åĲĬ": 7439,
      "ä¸ºçĶ±": 7440,
      "æľīåı¯èĥ½": 7441,
      "æľĪåºķ": 7442,
      "éĩĳéĹ¨": 7443,
      "æĸ°åįİ": 7444,
      "ä¹¦æ³ķ": 7445,
      "æĺ¯å¯¹": 7446,
      "åĩºäºİ": 7447,
      "æİ¢éĻ©": 7448,
      "ä»¥ä¾¿": 7449,
      "çĽ®çļĦæĺ¯": 7450,
      "éĿŀæ³ķ": 7451,
      "è¿Ľè¡ĮçļĦ": 7452,
      "ĠåĨħ": 7453,
      "åĿŀ": 7454,
      "éªĹ": 7455,
      "åıĻåĪ©äºļ": 7456,
      "éĿ¢åĲĳ": 7457,
      "ç»´åĲ¾å°Ķ": 7458,
      "èº«åĪĨ": 7459,
      "åĨ¥": 7460,
      "é¦ĸé¢Ĩ": 7461,
      "ros": 7462,
      "æĿ¥çľĭ": 7463,
      "åº¶": 7464,
      "å»¶éķ¿": 7465,
      "æĿ¥èĩªäºİ": 7466,
      "åĦĴå®¶": 7467,
      "åŃ¦åłĤ": 7468,
      "ç«ĭéĻ¶": 7469,
      "å®ļæľŁ": 7470,
      "éĢļè¡Į": 7471,
      "æī¿è¯º": 7472,
      "æµıè§Ī": 7473,
      "çļĦåŁºæľ¬": 7474,
      "è®¤çŁ¥": 7475,
      "åĮĹäº¬å¤§åŃ¦": 7476,
      "åĩ¶": 7477,
      "æ³Ħ": 7478,
      "åĲĽå£«åĿ¦": 7479,
      "Ġå¯¹äºİ": 7480,
      "1919": 7481,
      "å¸ĥèİ±": 7482,
      "å·¥åķĨ": 7483,
      "æĮĩè´£": 7484,
      "å¨ģå°¼æĸ¯": 7485,
      "æŁĲç§į": 7486,
      "ç¿ħ": 7487,
      "ĠĠĠĠĠĠĠ": 7488,
      "ä¸Ģåľº": 7489,
      "çĶµèį·": 7490,
      "ä½ĨåĽł": 7491,
      "ç¼´": 7492,
      "å°±ä»»": 7493,
      "ç«ŀèµĽ": 7494,
      "1922": 7495,
      "ä¹ĭçĪ¶": 7496,
      "æĮ¤": 7497,
      "æĿ¡æ¬¾": 7498,
      "å¤§åį«": 7499,
      "è·Į": 7500,
      "éĩİçĶŁ": 7501,
      "å®¦": 7502,
      "æł¼å°Ķ": 7503,
      "çīĽé¡¿": 7504,
      "ä¸ĢçĶŁ": 7505,
      "äºĶåįģ": 7506,
      "æĥ³æ³ķ": 7507,
      "ç½Ĺé©¬å°¼äºļ": 7508,
      "å¼ºå¤§çļĦ": 7509,
      "ash": 7510,
      "ç®ĢåįķçļĦ": 7511,
      "åľ¨åĨħ": 7512,
      "çī¹éĩĮ": 7513,
      "åŁºéļĨ": 7514,
      "æĿĥå¨ģ": 7515,
      "èĢĥå¯Ł": 7516,
      "åįķåħĥ": 7517,
      "æĳ§æ¯ģ": 7518,
      "å¤©æĸĩåŃ¦": 7519,
      "ä¸ľäº¬éĥ½": 7520,
      "å½ĹæĺŁ": 7521,
      "åĴĮçº¦": 7522,
      "ann": 7523,
      "urn": 7524,
      "é«ĺçŃīæķĻèĤ²": 7525,
      "éĺŁéķ¿": 7526,
      "ä¿¡éķ¿": 7527,
      "åľŁå£¤": 7528,
      "æĤ¼": 7529,
      "æħĪåĸĦ": 7530,
      "ãĥ¼ãĥ": 7531,
      "ä¸½èİİçĻ½": 7532,
      "æľµ": 7533,
      "æĮ¡": 7534,
      "èĬĤæĹ¥": 7535,
      "å½±åĵįåĬĽ": 7536,
      "ä¸¥éĩįçļĦ": 7537,
      "éĹ°": 7538,
      "åħĭåĪ©": 7539,
      "æĪĲç«ĭåĲİ": 7540,
      "å½¼æŃ¤": 7541,
      "åįłåľ°": 7542,
      "ystem": 7543,
      "au": 7544,
      "ase": 7545,
      "CC": 7546,
      "çĶµæµģ": 7547,
      "å·¥åŃ¦éĻ¢": 7548,
      "æľīäºĨ": 7549,
      "éģ®": 7550,
      "åĮĹä¼Ĳ": 7551,
      "ä¸īæ¬¡": 7552,
      "åħ¨å¹´": 7553,
      "åıĤéĢī": 7554,
      "æĿ°åĩº": 7555,
      "ĠéĻ¤äºĨ": 7556,
      "éĺŁçļĦ": 7557,
      "çĹħéĢĿ": 7558,
      "ç»Īèº«": 7559,
      "ãĤ¹": 7560,
      "Th": 7561,
      "å»ºåĪ¶": 7562,
      "ĠRe": 7563,
      "eth": 7564,
      "å»ºçŃĳå¸Ī": 7565,
      "è¯ĳä¸º": 7566,
      "ä¾µçķ¥": 7567,
      "èĳ¬äºİ": 7568,
      "æĬĹæĹ¥æĪĺäºī": 7569,
      "ç¥Ī": 7570,
      "éĢļå¾Ģ": 7571,
      "æ»¥": 7572,
      "ä¸ĥæľĪ": 7573,
      "é¡ºåĪ©": 7574,
      "èªīä¸º": 7575,
      "ä¸»è¦ģæľī": 7576,
      "æµĵåº¦": 7577,
      "çļĦè§Ĵèī²": 7578,
      "åľ¨æĸ°": 7579,
      "åľ¨ä¸Ģä¸ª": 7580,
      "åľ¨ä»ĸçļĦ": 7581,
      "ä¸ĵç§ĳ": 7582,
      "å®¿èĪį": 7583,
      "æĲºå¸¦": 7584,
      "Ġäºİ": 7585,
      "ä¸ĸåĩ¯": 7586,
      "éĺ¿æł¹å»·": 7587,
      "ç»ĪæŃ¢": 7588,
      "è¿«ä½¿": 7589,
      "Ġ1960": 7590,
      "åĪ¶æĪĲ": 7591,
      "è¾¹çļĦ": 7592,
      "äº«æľī": 7593,
      "å±±ä¸ľçľģ": 7594,
      "å¤ĦåĨ³": 7595,
      "ï¼Īï¼īãĢĤ": 7596,
      "å¸¸å§Ķ": 7597,
      "å¤ĦçļĦ": 7598,
      "åĽ¾æ¡Ī": 7599,
      "æ½ľèīĩ": 7600,
      "ĠéĿĴ": 7601,
      "çĻ»è¾ī": 7602,
      "Ġä¸ĩ": 7603,
      "å®īåİ¿": 7604,
      "äºīè®º": 7605,
      "çļĦä½ľçĶ¨": 7606,
      "åĮºè®®ä¼ļ": 7607,
      "åı¯ä»¥çĶ¨": 7608,
      "å¯ħ": 7609,
      "çĭ¬è£ģ": 7610,
      "ç½ķé»ĺ": 7611,
      "ç§©åºı": 7612,
      "ç«ĭéĻ¶å®Ľ": 7613,
      "ä¸ªåĽ½å®¶": 7614,
      "ä¸»ä½ĵ": 7615,
      "åİŁåħĪ": 7616,
      "åı¦ä¸Ģç§į": 7617,
      "æº¶æ¶²": 7618,
      "ä¼łæķĻå£«": 7619,
      ";\"|": 7620,
      "ĠéŁ³ä¹Ĳ": 7621,
      "ç¤ģ": 7622,
      "å¸Įå°Ķ": 7623,
      "ä¿®å¤į": 7624,
      "Ġèĥ¡": 7625,
      "èĩĤ": 7626,
      "æĢ¨": 7627,
      "è¾£": 7628,
      "æĹıèĩªæ²»": 7629,
      "æ±īäºº": 7630,
      "æ²¿çĶ¨": 7631,
      "è¢ģä¸ĸåĩ¯": 7632,
      "æŃ¼": 7633,
      "Ġäºº": 7634,
      "åľ°ä¸Ńæµ·": 7635,
      "ç³Ĭ": 7636,
      "å¸ľ": 7637,
      "è¯ŃåĴĮ": 7638,
      "æ¡¥æ¢ģ": 7639,
      "æķĻå¾Ĵ": 7640,
      "ç³»çļĦ": 7641,
      "ç»ĵè®º": 7642,
      "éĢĢå½¹": 7643,
      "åŁºçĿ£å¾Ĵ": 7644,
      "enn": 7645,
      "æĹ¥è®°": 7646,
      "è§ĤéŁ³": 7647,
      "åĨ²åĩ»": 7648,
      "å°§": 7649,
      "æ·³": 7650,
      "å´ĸ": 7651,
      "åıĳçĶŁäºĨ": 7652,
      "å¤§éĥ¨ä»½": 7653,
      "å·´åĭĴ": 7654,
      "èĨ¨èĥĢ": 7655,
      "èģĶåĲĪä¼ļ": 7656,
      "SA": 7657,
      "Ã¼": 7658,
      "ĠæĽ¾": 7659,
      "æ¸¤": 7660,
      "çħ®": 7661,
      "ç©Ĩç½ķé»ĺ": 7662,
      "ä¸Ĭæ¸¸": 7663,
      "ä½ĵçİ°": 7664,
      "å¤ªæŀģ": 7665,
      "ãĢĤãĢĤ": 7666,
      "ä¸įæĺİ": 7667,
      "åħ¬ä¼ļ": 7668,
      "æĻ´": 7669,
      "åħ¨åĽ½éĩįçĤ¹": 7670,
      "äºĳæŀĹ": 7671,
      "Ð¸": 7672,
      "ĠçĪ±": 7673,
      "çļĦçĲĨè®º": 7674,
      "éĺĲ": 7675,
      "åķĨåľº": 7676,
      "åĩºåħµ": 7677,
      "æĮĩæİ§": 7678,
      "åĨĴéĻ©": 7679,
      "åŃ¦è¯´": 7680,
      "Ġé¾Ļ": 7681,
      "æıĲåĢ¡": 7682,
      "çĭĲ": 7683,
      "é»Ħèī²": 7684,
      "RNA": 7685,
      "æŃ¤æ¬¡": 7686,
      "èĲĿ": 7687,
      "æ·ĺ": 7688,
      "æľĶ": 7689,
      "æ±¶": 7690,
      "è¿Ļåľº": 7691,
      "è¿Ľåı£": 7692,
      "æµģäº¡": 7693,
      "çĽ²": 7694,
      "ä¸ĬäºĨ": 7695,
      "è¡Įé©¶": 7696,
      "æĸ¯æīĺ": 7697,
      "åħ³ä¸ľ": 7698,
      "æĹ¥çĽĬ": 7699,
      "æĺ¯æľī": 7700,
      "ä¸įä½Ĩ": 7701,
      "åĨĽåľ¨": 7702,
      "å®¢æľº": 7703,
      "çļĦä½įç½®": 7704,
      "1921": 7705,
      "çĮ©": 7706,
      "ï¼īãĢģãĢĬ": 7707,
      "è¿ŀè½½": 7708,
      "æĶ¯æµģ": 7709,
      "ä¸Ńä¸ľ": 7710,
      "åįİè¯Ń": 7711,
      "æ³¢å£«é¡¿": 7712,
      "æĳĩæ»ļ": 7713,
      "éĽįæŃ£": 7714,
      "ä»Ĩ": 7715,
      "ä¸ĬåįĪ": 7716,
      "å¤ļåħĥ": 7717,
      "ä½įçļĦ": 7718,
      "æĬĢå·§": 7719,
      "è®¾è®¡å¸Ī": 7720,
      "ç¬¬ä¸īæ¬¡": 7721,
      "1900": 7722,
      "ï¼ļï¼ī": 7723,
      "æĸĩåĮĸå¤§éĿ©åĳ½": 7724,
      "Ar": 7725,
      "æĸ¹éĴĪ": 7726,
      "edia": 7727,
      "çŃ¹å¤ĩ": 7728,
      "èī³": 7729,
      "å¿ĥèĦı": 7730,
      "Ġåħ¬": 7731,
      "Ġç§¦": 7732,
      "éĺľ": 7733,
      "ä¸įçŁ¥": 7734,
      "æĸĩçļĦ": 7735,
      "æ´Ľä¼Ĳ": 7736,
      "NBA": 7737,
      "åıĳçĶŁçļĦ": 7738,
      "åĲ«éĩı": 7739,
      "çļĦç¬¬": 7740,
      "æĸĩåĮĸéģĹäº§": 7741,
      "èĩ´åĬĽ": 7742,
      "ä¾¿æĺ¯": 7743,
      "éĢļå¸¸æĺ¯": 7744,
      "æħķå°¼": 7745,
      "æµ·åįĹ": 7746,
      "ä¹ĲåĿĽ": 7747,
      "æııç»ĺ": 7748,
      "Ġwith": 7749,
      "ĠåıĮ": 7750,
      "å½ĵå¤©": 7751,
      "æ°´æīģ": 7752,
      "ins": 7753,
      "éħ±": 7754,
      "åĪĺéĤ¦": 7755,
      "ä¾ĿéĿł": 7756,
      "æĩ¿": 7757,
      "çĢĳå¸ĥ": 7758,
      "æĶ¹åĪ¶": 7759,
      "é¦ĸå¸Ń": 7760,
      "å¤´è¡Ķ": 7761,
      "åĪĨå¸ĥäºİ": 7762,
      "ï¼Īï¼Įï¼īï¼Į": 7763,
      "èĤĩ": 7764,
      "èı²åĪ©": 7765,
      "éĻ¤æŃ¤ä¹ĭå¤ĸ": 7766,
      "Ġå±±": 7767,
      "Ġåħī": 7768,
      "ç¥Ĳ": 7769,
      "æĹ¥æŃ£å¼ı": 7770,
      "æŀģå¤§": 7771,
      "æľ¨æĺŁ": 7772,
      "éģŃéģĩ": 7773,
      "Ġå¦Ĥæŀľ": 7774,
      "æĺ¯æĹ¥æľ¬": 7775,
      "ä¸įåıĹ": 7776,
      "å¥³ä¸»è§Ĵ": 7777,
      "å¼ºåº¦": 7778,
      "ç¨³å®ļçļĦ": 7779,
      "çļĦåĦ¿åŃĲ": 7780,
      "åĨħæľī": 7781,
      "Ġç¾İ": 7782,
      "å¼ĢåĬŀ": 7783,
      "çľł": 7784,
      "å¼ºåĪ¶": 7785,
      "æĻ¯åĮº": 7786,
      "åĽ½æ°ĳéĿ©åĳ½åĨĽ": 7787,
      "æ¸Ĳæ¸Ĳ": 7788,
      "èĸĩ": 7789,
      "ä¸Ģé¡¹": 7790,
      "å¤§å®¶": 7791,
      "å¯¹è¯Ŀ": 7792,
      "éŁ³èĬĤ": 7793,
      "æŃ¦åĬĽ": 7794,
      "IV": 7795,
      "ä¹ĭåĲį": 7796,
      "çķ´": 7797,
      "èĻŀ": 7798,
      "çĶµè§ĨèĬĤçĽ®": 7799,
      "oll": 7800,
      "åĽĽå·Ŀçľģ": 7801,
      "GDP": 7802,
      "çļĦæľĢé«ĺ": 7803,
      "åľ¨å½ĵæĹ¶": 7804,
      "ä¼łéĢĴ": 7805,
      "èħ°": 7806,
      "æľįè£ħ": 7807,
      "æ¹ĸæ³Ĭ": 7808,
      "Ġy": 7809,
      "1917": 7810,
      "ç¾İå°¼äºļ": 7811,
      "åį³å°Ĩ": 7812,
      "æĶ¾å°ĦæĢ§": 7813,
      "09": 7814,
      "è´·": 7815,
      "éħµ": 7816,
      "æ·Ģ": 7817,
      "æīĭä¸Ń": 7818,
      "è¾ĥå¤§çļĦ": 7819,
      "æ°ĳåħļ": 7820,
      "ä¸ľé£İ": 7821,
      "åı²æĸĻ": 7822,
      "çĽ´å±ŀ": 7823,
      "att": 7824,
      "åħŃä¸ĸ": 7825,
      "å§Ķåĳĺä¼ļå§Ķåĳĺ": 7826,
      "èįīæ¡Ī": 7827,
      "åį¤": 7828,
      "èĬĻ": 7829,
      "ç¡Ŀ": 7830,
      "è´¢åĬ¡": 7831,
      "ç¬¼": 7832,
      "æ³ķä»¤": 7833,
      "è¿Ļä¹Łæĺ¯": 7834,
      "çľŁæŃ£çļĦ": 7835,
      "250": 7836,
      "Ġæ°¸": 7837,
      "å¹´ä¸ŃåĽ½": 7838,
      "åį§": 7839,
      "101": 7840,
      "ç»´åħĭ": 7841,
      "èĪ¹åıª": 7842,
      "ava": 7843,
      "é¤Ĳåİħ": 7844,
      "Pl": 7845,
      "å®¤åĨħ": 7846,
      "BM": 7847,
      "äººè®¤ä¸º": 7848,
      "åıĤèµĽ": 7849,
      "æ½®å·ŀ": 7850,
      "å¹¿æĴŃçĶµåı°": 7851,
      "åľ¨ä¸Ĭæµ·": 7852,
      "ä¸Ĭå°Ĩ": 7853,
      "å®«å»·": 7854,
      "ĠåĽ¾": 7855,
      "åĲ§": 7856,
      "åĮºéĹ´": 7857,
      "åĪ¶çīĩ": 7858,
      "åĲĪçĲĨ": 7859,
      "åıĳè¡¨äºĨ": 7860,
      "å¹¶çĶ±": 7861,
      "å·´èµ«": 7862,
      "å¯¼ä½ĵ": 7863,
      "è¿ĳå¹´": 7864,
      "åįĹæĸ¯æĭīå¤«": 7865,
      "è·¯å¾·": 7866,
      "åį³ä¸º": 7867,
      "æľ«æľŁ": 7868,
      "åĲ¦åĪĻ": 7869,
      "æ¸ħåįİå¤§åŃ¦": 7870,
      "Ġ*/": 7871,
      "Ġe": 7872,
      "1913": 7873,
      "æķ°ä¸º": 7874,
      "åĽłåħ¶": 7875,
      "å°ģéĶģ": 7876,
      "ä½ľçī©": 7877,
      "åı¤æĭī": 7878,
      "æĭĨéĻ¤": 7879,
      "AL": 7880,
      "æĸ°ç½Ĺ": 7881,
      "æŃ£éĿ¢": 7882,
      "çĻ¾åĪĨçĤ¹": 7883,
      "Ġåį°åº¦": 7884,
      "ä¸Ģåı·": 7885,
      "æĺİæĺŁ": 7886,
      "è¿ĺåľ¨": 7887,
      "çłĶç©¶çĶŁ": 7888,
      "å¤«å¦ĩ": 7889,
      "oph": 7890,
      "çĶµç£ģ": 7891,
      "è¯Ńä¸Ń": 7892,
      "å¢ŀå¼º": 7893,
      "ĠYork": 7894,
      "æ¹¿åľ°": 7895,
      "æ¾İæ¹ĸ": 7896,
      "çŃĴ": 7897,
      "æ°´çļĦ": 7898,
      "éŃĶæ³ķ": 7899,
      "éĽķå¡ĳ": 7900,
      "æŁĲä¸ª": 7901,
      "çļĦåľ°ä½į": 7902,
      "ç»ıåĽ½": 7903,
      "è¿ĩäºİ": 7904,
      "æĪĲåĳĺåĽ½": 7905,
      "æ£Ģæµĭ": 7906,
      "åĳ¼åĲģ": 7907,
      "çĶŁç´ł": 7908,
      "æĸĩæľ¬": 7909,
      "è´§çī©": 7910,
      "åĲĪçº¦": 7911,
      "ä¸ĸçķĮåĲĦåľ°": 7912,
      "æľįå½¹": 7913,
      "ĠçĻ¾": 7914,
      "ä¸ŃçŃī": 7915,
      "åľ°åĬ¿": 7916,
      "éķ¿æĺ¥": 7917,
      "åŁºæĸ¯åĿ¦": 7918,
      "èį«": 7919,
      "æ£ķ": 7920,
      "åįĩçº§": 7921,
      "æ·»åĬł": 7922,
      "è¿ĻæĹ¶": 7923,
      "éķ¿åŁİ": 7924,
      "é²ģè¿ħ": 7925,
      "å°ıè¯´å®¶": 7926,
      "å®ļä¹īä¸º": 7927,
      "çģ«è½¦": 7928,
      "è®ºåĿĽ": 7929,
      "è½¬åıĺ": 7930,
      "ames": 7931,
      "è¶ĭåĬ¿": 7932,
      "åģ¶åĥıåĽ¢ä½ĵ": 7933,
      "ä¸ªä½ĵ": 7934,
      "å½ĵä½ľ": 7935,
      "å²©çŁ³": 7936,
      "éĶ¦æłĩèµĽ": 7937,
      "æ¬ł": 7938,
      "çĤ³": 7939,
      "äº§éĺ¶çº§": 7940,
      "å®īå¨ľ": 7941,
      "ä¹ĲåĽŃ": 7942,
      "ç¤¾ä¼ļç§ĳåŃ¦": 7943,
      "çĽĳçĭ±": 7944,
      "112": 7945,
      "En": 7946,
      "ä»ĸäºº": 7947,
      "è¿Ļä¸¤ä¸ª": 7948,
      "æ°ĳæĹıä¸»ä¹ī": 7949,
      "Ġåİ¿": 7950,
      "ç¬¬ä¸Ģå±Ĭ": 7951,
      "ĠAmer": 7952,
      "è¿ľä¸ľ": 7953,
      "æĻ®éĢļè¯Ŀ": 7954,
      "çīº": 7955,
      "ä¹ĭå¥³": 7956,
      "åįĹä¸ĭ": 7957,
      "çī¹æ´Ľ": 7958,
      "ool": 7959,
      "çļĦåĽ½éĻħ": 7960,
      "å¼Ħ": 7961,
      "1924": 7962,
      "ä»ĸä¸º": 7963,
      "éĽģ": 7964,
      "ãĢįï¼ī": 7965,
      "è¿ĽèĢĮ": 7966,
      "âĢĿï¼ĮâĢľ": 7967,
      "åĸľçĪ±": 7968,
      "æĿ°åħĭéĢĬ": 7969,
      "ä¸ŀçĽ¸": 7970,
      "æ³ķè§Ħ": 7971,
      "åĪ¤åĨ³": 7972,
      "è¡Įä½¿": 7973,
      "åīįèº«": 7974,
      "å¹´ä¸İ": 7975,
      "ä¹ĭæĹ¶": 7976,
      "éľĸ": 7977,
      "å¹´è¯ºè´Ŀå°Ķ": 7978,
      "çİĭæľĿçļĦ": 7979,
      "CH": 7980,
      "è¥¿åħĥ": 7981,
      "åĮĸçī©": 7982,
      "çļĦè¯Ńè¨Ģ": 7983,
      "1926": 7984,
      "æľĢæľī": 7985,
      "ä¹¦åºĹ": 7986,
      "åľºæĻ¯": 7987,
      "åľ¨èĭ±åĽ½": 7988,
      "éģĵå¤«": 7989,
      "èĮµ": 7990,
      "Ġ21": 7991,
      "æĺı": 7992,
      "æİ¥èĳĹ": 7993,
      "å°Ħåĩ»": 7994,
      "éĿłè¿ĳ": 7995,
      "æĸ°çķĮ": 7996,
      "èĤ¿": 7997,
      "æ£ł": 7998,
      "ä¼Ĭä¸½èİİçĻ½": 7999
    },
    "merges": [
      [
        "ï",
        "¼"
      ],
      [
        "ä",
        "¸"
      ],
      [
        "ã",
        "Ģ"
      ],
      [
        "ï¼",
        "Į"
      ],
      [
        "ç",
        "ļ"
      ],
      [
        "ä",
        "º"
      ],
      [
        "çļ",
        "Ħ"
      ],
      [
        "ãĢ",
        "Ĥ"
      ],
      [
        "å",
        "ı"
      ],
      [
        "æ",
        "ľ"
      ],
      [
        "å",
        "ħ"
      ],
      [
        "å",
        "¤"
      ],
      [
        "å",
        "¹"
      ],
      [
        "ä",
        "»"
      ],
      [
        "å",
        "Ľ"
      ],
      [
        "å",
        "ľ"
      ],
      [
        "å",
        "Ī"
      ],
      [
        "Ġ",
        "Ċ"
      ],
      [
        "å",
        "®"
      ],
      [
        "å",
        "Ĳ"
      ],
      [
        "å¹",
        "´"
      ],
      [
        "ç",
        "Ķ"
      ],
      [
        "æ",
        "Ĺ"
      ],
      [
        "ä",
        "½"
      ],
      [
        "æ",
        "ĸ"
      ],
      [
        "ãĢ",
        "ģ"
      ],
      [
        "ä",
        "¹"
      ],
      [
        "å",
        "į"
      ],
      [
        "è",
        "¿"
      ],
      [
        "å",
        "Ń"
      ],
      [
        "æ",
        "ĺ"
      ],
      [
        "ç",
        "»"
      ],
      [
        "åĽ",
        "½"
      ],
      [
        "å",
        "°"
      ],
      [
        "ä¸",
        "Ń"
      ],
      [
        "ä",
        "¼"
      ],
      [
        "æ",
        "Ī"
      ],
      [
        "åľ",
        "¨"
      ],
      [
        "å",
        "Į"
      ],
      [
        "å",
        "Ĭ"
      ],
      [
        "ä¸",
        "º"
      ],
      [
        "ä¸",
        "Ģ"
      ],
      [
        "å",
        "¸"
      ],
      [
        "è",
        "¯"
      ],
      [
        "è",
        "®"
      ],
      [
        "å",
        "Ĩ"
      ],
      [
        "ï¼",
        "Ī"
      ],
      [
        "ï¼",
        "ī"
      ],
      [
        "æ",
        "Ŀ"
      ],
      [
        "äº",
        "º"
      ],
      [
        "å¤",
        "§"
      ],
      [
        "æĺ",
        "¯"
      ],
      [
        "å",
        "¼"
      ],
      [
        "é",
        "ĩ"
      ],
      [
        "å",
        "º"
      ],
      [
        "å",
        "·"
      ],
      [
        "å",
        "¾"
      ],
      [
        "æľ",
        "ī"
      ],
      [
        "â",
        "Ģ"
      ],
      [
        "ç",
        "§"
      ],
      [
        "ç",
        "ī"
      ],
      [
        "æ",
        "Ķ"
      ],
      [
        "æ",
        "°"
      ],
      [
        "å",
        "Ĵ"
      ],
      [
        "è",
        "Ģ"
      ],
      [
        "æ",
        "ķ"
      ],
      [
        "é",
        "Ģ"
      ],
      [
        "è",
        "¡"
      ],
      [
        "ç",
        "º"
      ],
      [
        "æ",
        "ī"
      ],
      [
        "å",
        "ĩ"
      ],
      [
        "å",
        "±"
      ],
      [
        "åŃ",
        "¦"
      ],
      [
        "åĴ",
        "Į"
      ],
      [
        "1",
        "9"
      ],
      [
        "é",
        "Ļ"
      ],
      [
        "æ",
        "Ń"
      ],
      [
        "é",
        "ĥ"
      ],
      [
        "ç",
        "İ"
      ],
      [
        "å",
        "¯"
      ],
      [
        "å",
        "½"
      ],
      [
        "å",
        "İ"
      ],
      [
        "æ",
        "³"
      ],
      [
        "äº",
        "İ"
      ],
      [
        "ç",
        "Ľ"
      ],
      [
        "æĹ",
        "¥"
      ],
      [
        "è",
        "ĩ"
      ],
      [
        "ä»",
        "¥"
      ],
      [
        "æľ",
        "Ī"
      ],
      [
        "æ",
        "ł"
      ],
      [
        "è",
        "§"
      ],
      [
        "ï¼",
        "ļ"
      ],
      [
        "æ",
        "µ"
      ],
      [
        "æ",
        "Ģ"
      ],
      [
        "2",
        "0"
      ],
      [
        "æ",
        "²"
      ],
      [
        "å",
        "¥"
      ],
      [
        "å",
        "ĳ"
      ],
      [
        "ä¼",
        "ļ"
      ],
      [
        "åĲ",
        "İ"
      ],
      [
        "æĹ",
        "¶"
      ],
      [
        "è",
        "µ"
      ],
      [
        "æ",
        "ĭ"
      ],
      [
        "äº",
        "Ĩ"
      ],
      [
        "åľ",
        "°"
      ],
      [
        "é",
        "ĺ"
      ],
      [
        "æĪ",
        "Ĳ"
      ],
      [
        "ä¸",
        "į"
      ],
      [
        "è",
        "´"
      ],
      [
        "ç",
        "«"
      ],
      [
        "è",
        "¾"
      ],
      [
        "æ",
        "¸"
      ],
      [
        "é",
        "Ĺ"
      ],
      [
        "å",
        "Ł"
      ],
      [
        "ä¹",
        "ĭ"
      ],
      [
        "ä¸",
        "Ĭ"
      ],
      [
        "ä¸",
        "ª"
      ],
      [
        "ç",
        "Ĳ"
      ],
      [
        "é",
        "Ŀ"
      ],
      [
        "æ",
        "ŀ"
      ],
      [
        "ä¸",
        "»"
      ],
      [
        "åĩ",
        "º"
      ],
      [
        "æ",
        "´"
      ],
      [
        "ãĢ",
        "Ĭ"
      ],
      [
        "ãĢ",
        "ĭ"
      ],
      [
        "ä¸",
        "İ"
      ],
      [
        "æ",
        "Ĭ"
      ],
      [
        "å",
        "ī"
      ],
      [
        "çĶ",
        "Ł"
      ],
      [
        "ç",
        "Ń"
      ],
      [
        "è¡",
        "Į"
      ],
      [
        "å®",
        "¶"
      ],
      [
        "ç",
        "¬"
      ],
      [
        "éĥ",
        "¨"
      ],
      [
        "æ°",
        "ĳ"
      ],
      [
        "æ",
        "±"
      ],
      [
        "åı",
        "ĳ"
      ],
      [
        "æ",
        "İ"
      ],
      [
        "è",
        "ĥ"
      ],
      [
        "ä",
        "¿"
      ],
      [
        "æ",
        "¯"
      ],
      [
        "ä½",
        "ľ"
      ],
      [
        "é",
        "ķ"
      ],
      [
        "æĸ",
        "ĩ"
      ],
      [
        "çĶ",
        "¨"
      ],
      [
        "åħ",
        "¶"
      ],
      [
        "å",
        "¿"
      ],
      [
        "è",
        "½"
      ],
      [
        "ä»",
        "ĸ"
      ],
      [
        "ç",
        "½"
      ],
      [
        "æĸ",
        "¯"
      ],
      [
        "æ³",
        "ķ"
      ],
      [
        "åĪ",
        "Ĩ"
      ],
      [
        "åħ",
        "¬"
      ],
      [
        "åĮ",
        "º"
      ],
      [
        "æĶ",
        "¿"
      ],
      [
        "é",
        "ģ"
      ],
      [
        "æ",
        "Ľ"
      ],
      [
        "ç",
        "¾"
      ],
      [
        "è",
        "ĭ"
      ],
      [
        "ç¬",
        "¬"
      ],
      [
        "é",
        "¢"
      ],
      [
        "èĢ",
        "Į"
      ],
      [
        "åĨ",
        "Ľ"
      ],
      [
        "è",
        "¢"
      ],
      [
        "é",
        "¦"
      ],
      [
        "æĸ",
        "¹"
      ],
      [
        "å",
        "»"
      ],
      [
        "åĪ",
        "°"
      ],
      [
        "åŃ",
        "Ĳ"
      ],
      [
        "å¯",
        "¹"
      ],
      [
        "å",
        "§"
      ],
      [
        "è",
        "¥"
      ],
      [
        "åı",
        "Ĭ"
      ],
      [
        "æ",
        "¬"
      ],
      [
        "å",
        "ĵ"
      ],
      [
        "ä¸",
        "ĸ"
      ],
      [
        "å¤",
        "ļ"
      ],
      [
        "è¥",
        "¿"
      ],
      [
        "æĿ",
        "¥"
      ],
      [
        "æ",
        "Į"
      ],
      [
        "æľ",
        "¬"
      ],
      [
        "ä",
        "¾"
      ],
      [
        "åĲ",
        "į"
      ],
      [
        "è¿",
        "Ļ"
      ],
      [
        "é",
        "Ľ"
      ],
      [
        "ãĢ",
        "Į"
      ],
      [
        "ãĢ",
        "į"
      ],
      [
        "åĲ",
        "Į"
      ],
      [
        "Â",
        "·"
      ],
      [
        "èĩ",
        "ª"
      ],
      [
        "åį",
        "Ĺ"
      ],
      [
        "ä»",
        "£"
      ],
      [
        "åı",
        "¯"
      ],
      [
        "âĢ",
        "ľ"
      ],
      [
        "âĢ",
        "Ŀ"
      ],
      [
        "å°",
        "Ķ"
      ],
      [
        "å¹",
        "¶"
      ],
      [
        "éķ",
        "¿"
      ],
      [
        "è¢",
        "«"
      ],
      [
        "å¸",
        "Ĥ"
      ],
      [
        "åĬ",
        "¨"
      ],
      [
        "çĶ",
        "±"
      ],
      [
        "¦",
        "ģ"
      ],
      [
        "åı",
        "°"
      ],
      [
        "çŃ",
        "ī"
      ],
      [
        "åĮ",
        "Ĺ"
      ],
      [
        "æĸ",
        "°"
      ],
      [
        "è",
        "·"
      ],
      [
        "æľ",
        "Ģ"
      ],
      [
        "é",
        "«"
      ],
      [
        "ç«",
        "ĭ"
      ],
      [
        "çĶ",
        "µ"
      ],
      [
        "ä¸",
        "ĭ"
      ],
      [
        "é«",
        "ĺ"
      ],
      [
        "ä¹",
        "Ł"
      ],
      [
        "çī",
        "©"
      ],
      [
        "å¼",
        "Ģ"
      ],
      [
        "çĲ",
        "Ĩ"
      ],
      [
        "ç»",
        "ı"
      ],
      [
        "ä¸",
        "ľ"
      ],
      [
        "å",
        "¦"
      ],
      [
        "é",
        "©"
      ],
      [
        "æī",
        "Ģ"
      ],
      [
        "è",
        "¦ģ"
      ],
      [
        "ç¾",
        "İ"
      ],
      [
        "ä¸",
        "ī"
      ],
      [
        "è",
        "ģ"
      ],
      [
        "æķ",
        "Ļ"
      ],
      [
        "ç",
        "¤"
      ],
      [
        "åĮ",
        "ĸ"
      ],
      [
        "çī",
        "¹"
      ],
      [
        "ç",
        "±"
      ],
      [
        "åĳ",
        "ĺ"
      ],
      [
        "å",
        "£"
      ],
      [
        "æ",
        "Ļ"
      ],
      [
        "ä½",
        "į"
      ],
      [
        "ç",
        "©"
      ],
      [
        "åī",
        "į"
      ],
      [
        "å¤",
        "ĸ"
      ],
      [
        "æķ",
        "°"
      ],
      [
        "è",
        "ī"
      ],
      [
        "åĽ",
        "ł"
      ],
      [
        "ç",
        "¥"
      ],
      [
        "å»",
        "º"
      ],
      [
        "æĪ",
        "ĺ"
      ],
      [
        "ç",
        "ķ"
      ],
      [
        "å",
        "Ŀ"
      ],
      [
        "çİ",
        "°"
      ],
      [
        "å®",
        "ļ"
      ],
      [
        "å¾",
        "·"
      ],
      [
        "è",
        "Ī"
      ],
      [
        "Ł",
        "³"
      ],
      [
        "è¿",
        "ĩ"
      ],
      [
        "æľ",
        "º"
      ],
      [
        "ä¸Ń",
        "åĽ½"
      ],
      [
        "èĥ",
        "½"
      ],
      [
        "ä½",
        "ĵ"
      ],
      [
        "è",
        "°"
      ],
      [
        "åĨ",
        "ħ"
      ],
      [
        "å±",
        "±"
      ],
      [
        "æľ",
        "Ł"
      ],
      [
        "20",
        "0"
      ],
      [
        "åĪ",
        "©"
      ],
      [
        "æµ",
        "·"
      ],
      [
        "æŃ",
        "¤"
      ],
      [
        "äº",
        "ĭ"
      ],
      [
        "å¤",
        "©"
      ],
      [
        "çİ",
        "ĭ"
      ],
      [
        "åĬ",
        "ł"
      ],
      [
        "Ġ",
        "19"
      ],
      [
        "åħ",
        "¨"
      ],
      [
        "ç",
        "³"
      ],
      [
        "åĪ",
        "¶"
      ],
      [
        "å·",
        "¥"
      ],
      [
        "ç",
        "ľ"
      ],
      [
        "å",
        "²"
      ],
      [
        "èĢ",
        "ħ"
      ],
      [
        "äº",
        "Į"
      ],
      [
        "é",
        "ĵ"
      ],
      [
        "åĲ",
        "Ī"
      ],
      [
        "äº",
        "ļ"
      ],
      [
        "æ",
        "¹"
      ],
      [
        "éĩ",
        "Į"
      ],
      [
        "ç§",
        "°"
      ],
      [
        "éĢ",
        "ļ"
      ],
      [
        "éĹ",
        "´"
      ],
      [
        "å¾",
        "Ĺ"
      ],
      [
        "åħ",
        "ĭ"
      ],
      [
        "æĢ",
        "§"
      ],
      [
        "ä»",
        "»"
      ],
      [
        "ä¸",
        "ļ"
      ],
      [
        "æ",
        "Ħ"
      ],
      [
        "å°",
        "Ĩ"
      ],
      [
        "éģ",
        "ĵ"
      ],
      [
        "ä½",
        "¿"
      ],
      [
        "åħ",
        "±"
      ],
      [
        "è¡",
        "¨"
      ],
      [
        "ç",
        "®"
      ],
      [
        "å½",
        "ĵ"
      ],
      [
        "èĩ",
        "³"
      ],
      [
        "åº",
        "¦"
      ],
      [
        "ç",
        "¨"
      ],
      [
        "é",
        "ļ"
      ],
      [
        "è¿",
        "Ľ"
      ],
      [
        "åį",
        "ģ"
      ],
      [
        "æ",
        "ı"
      ],
      [
        "è",
        "Ĥ"
      ],
      [
        "ç»",
        "Ł"
      ],
      [
        "é",
        "¡"
      ],
      [
        "æ",
        "ĥ"
      ],
      [
        "è¯",
        "Ń"
      ],
      [
        "ç³",
        "»"
      ],
      [
        "è",
        "Ĭ"
      ],
      [
        "ä½",
        "Ĩ"
      ],
      [
        "éĩ",
        "į"
      ],
      [
        "ç",
        "Ļ"
      ],
      [
        "å°",
        "ı"
      ],
      [
        "åħ",
        "¥"
      ],
      [
        "å¹",
        "³"
      ],
      [
        "éĥ",
        "½"
      ],
      [
        "é©",
        "¬"
      ],
      [
        "éĻ",
        "¢"
      ],
      [
        "çĽ",
        "¸"
      ],
      [
        "è",
        "¶"
      ],
      [
        "ï¼",
        "Ľ"
      ],
      [
        "ç§",
        "į"
      ],
      [
        "è",
        "İ"
      ],
      [
        "ç",
        "ł"
      ],
      [
        "éĿ",
        "¢"
      ],
      [
        "è·",
        "¯"
      ],
      [
        "é",
        "£"
      ],
      [
        "1",
        "0"
      ],
      [
        "åį",
        "İ"
      ],
      [
        "æ¬",
        "¡"
      ],
      [
        "åĬ",
        "Ľ"
      ],
      [
        "æ",
        "į"
      ],
      [
        "åİ",
        "Ł"
      ],
      [
        "ç§",
        "ĳ"
      ],
      [
        "ç",
        "Ĥ"
      ],
      [
        "æĭ",
        "ī"
      ],
      [
        "è",
        "Ĳ"
      ],
      [
        "å¼",
        "ı"
      ],
      [
        "æĺ",
        "İ"
      ],
      [
        "e",
        "r"
      ],
      [
        "åħ",
        "ĥ"
      ],
      [
        "åħ",
        "³"
      ],
      [
        "æ¸",
        "¯"
      ],
      [
        "å¦",
        "Ĥ"
      ],
      [
        "æ²",
        "»"
      ],
      [
        "æĢ",
        "»"
      ],
      [
        "äº",
        "§"
      ],
      [
        "ä¹",
        "ī"
      ],
      [
        "å",
        "¢"
      ],
      [
        "å·",
        "ŀ"
      ],
      [
        "åŁ",
        "º"
      ],
      [
        "é",
        "Ĥ"
      ],
      [
        "éĩ",
        "ĳ"
      ],
      [
        "è®",
        "¾"
      ],
      [
        "æ",
        "¼"
      ],
      [
        "a",
        "n"
      ],
      [
        "èĭ",
        "±"
      ],
      [
        "å®",
        "ī"
      ],
      [
        "ç",
        "Ī"
      ],
      [
        "ç½",
        "Ĺ"
      ],
      [
        "ä¸",
        "¤"
      ],
      [
        "1",
        "8"
      ],
      [
        "åŁ",
        "İ"
      ],
      [
        "ç",
        "¦"
      ],
      [
        "æ",
        "Ł"
      ],
      [
        "æĪ",
        "ĸ"
      ],
      [
        "æ",
        "¡"
      ],
      [
        "æ",
        "ģ"
      ],
      [
        "ï¼ī",
        "ï¼Į"
      ],
      [
        "è",
        "ĳ"
      ],
      [
        "ç",
        "Ħ"
      ],
      [
        "âĢ",
        "Ķ"
      ],
      [
        "èģ",
        "Ķ"
      ],
      [
        "éĩ",
        "ı"
      ],
      [
        "é",
        "»"
      ],
      [
        "æ°",
        "´"
      ],
      [
        "ä¸Ģ",
        "ä¸ª"
      ],
      [
        "æŃ",
        "£"
      ],
      [
        "è¿",
        "Ĳ"
      ],
      [
        "åº",
        "ľ"
      ],
      [
        "å£",
        "«"
      ],
      [
        "åı",
        "²"
      ],
      [
        "çº",
        "¿"
      ],
      [
        "å",
        "Ģ"
      ],
      [
        "å¸",
        "¸"
      ],
      [
        "å½",
        "±"
      ],
      [
        "ç",
        "ģ"
      ],
      [
        "å¸",
        "ĥ"
      ],
      [
        "ä¹",
        "¦"
      ],
      [
        "ç",
        "¼"
      ],
      [
        "è",
        "į"
      ],
      [
        "åľ",
        "º"
      ],
      [
        "å",
        "ģ"
      ],
      [
        "å®",
        "ŀ"
      ],
      [
        "åĽ",
        "Ľ"
      ],
      [
        "çº",
        "¦"
      ],
      [
        "åı",
        "Ĥ"
      ],
      [
        "è®",
        "®"
      ],
      [
        "i",
        "n"
      ],
      [
        "åı",
        "£"
      ],
      [
        "æ¯",
        "Ķ"
      ],
      [
        "è¾",
        "¾"
      ],
      [
        "å¤§",
        "åŃ¦"
      ],
      [
        "ç",
        "Ł"
      ],
      [
        "ä»",
        "İ"
      ],
      [
        "o",
        "n"
      ],
      [
        "è®",
        "¡"
      ],
      [
        "èµ",
        "·"
      ],
      [
        "è½",
        "¦"
      ],
      [
        "åİ",
        "¿"
      ],
      [
        "ä¼",
        "ł"
      ],
      [
        "æĹ",
        "ł"
      ],
      [
        "çĦ",
        "¶"
      ],
      [
        "çķ",
        "Į"
      ],
      [
        "ç¨",
        "ĭ"
      ],
      [
        "1",
        "2"
      ],
      [
        "é¦",
        "Ļ"
      ],
      [
        "ç»",
        "ĵ"
      ],
      [
        "ç»",
        "Ħ"
      ],
      [
        "æ¹",
        "¾"
      ],
      [
        "ç¾İ",
        "åĽ½"
      ],
      [
        "è¯",
        "´"
      ],
      [
        "é",
        "Ł³"
      ],
      [
        "æĶ",
        "¹"
      ],
      [
        "æı",
        "Ĳ"
      ],
      [
        "åħ",
        "°"
      ],
      [
        "åı",
        "·"
      ],
      [
        "æł",
        "¡"
      ],
      [
        "å¥",
        "³"
      ],
      [
        "ç¤",
        "¾"
      ],
      [
        "ä»",
        "¬"
      ],
      [
        "0",
        "0"
      ],
      [
        "æł",
        "¼"
      ],
      [
        "æİ",
        "¥"
      ],
      [
        "æľ",
        "Ŀ"
      ],
      [
        "å°",
        "±"
      ],
      [
        "æ",
        "®"
      ],
      [
        "å¿",
        "ĥ"
      ],
      [
        "åĪ",
        "Ĺ"
      ],
      [
        "å",
        "Ķ"
      ],
      [
        "æ¼",
        "Ķ"
      ],
      [
        "åı",
        "¸"
      ],
      [
        "æ",
        "º"
      ],
      [
        "åĪ",
        "Ļ"
      ],
      [
        "ç",
        "´"
      ],
      [
        "æĦ",
        "ı"
      ],
      [
        "æŀ",
        "Ĺ"
      ],
      [
        "çĲ",
        "ĥ"
      ],
      [
        "æĹ",
        "ı"
      ],
      [
        "é",
        "ħ"
      ],
      [
        "åı",
        "¤"
      ],
      [
        "ç±",
        "»"
      ],
      [
        "åİ",
        "Ĩ"
      ],
      [
        "åħ",
        "ļ"
      ],
      [
        "äº",
        "¤"
      ],
      [
        "å",
        "¡"
      ],
      [
        "çĽ",
        "®"
      ],
      [
        "å½",
        "¢"
      ],
      [
        "å°",
        "¼"
      ],
      [
        "å¤",
        "ª"
      ],
      [
        "éĺ",
        "Ł"
      ],
      [
        "é",
        "Ķ"
      ],
      [
        "äº",
        "Ľ"
      ],
      [
        "å¸",
        "Ŀ"
      ],
      [
        "åŃ",
        "Ĺ"
      ],
      [
        "åĬ",
        "¡"
      ],
      [
        "è®",
        "¤"
      ],
      [
        "æĿ",
        "ĥ"
      ],
      [
        "éĢ",
        "ī"
      ],
      [
        "é",
        "ľ"
      ],
      [
        "å¹",
        "¿"
      ],
      [
        "çº",
        "ª"
      ],
      [
        "è§",
        "Ĩ"
      ],
      [
        "é¦",
        "ĸ"
      ],
      [
        "è®",
        "º"
      ],
      [
        "å§",
        "ĭ"
      ],
      [
        "1",
        "1"
      ],
      [
        "éĺ",
        "¿"
      ],
      [
        "æ",
        "¶"
      ],
      [
        "å",
        "ŀ"
      ],
      [
        "åĲ",
        "ĳ"
      ],
      [
        "æĺ",
        "Ł"
      ],
      [
        "é",
        "Ĵ"
      ],
      [
        "åı",
        "Ĺ"
      ],
      [
        "é¢",
        "Ĩ"
      ],
      [
        "Ġ",
        "Ġ"
      ],
      [
        "é¦Ļ",
        "æ¸¯"
      ],
      [
        "æµ",
        "ģ"
      ],
      [
        "ä¸",
        "ĩ"
      ],
      [
        "åº",
        "Ķ"
      ],
      [
        "ä¿",
        "Ŀ"
      ],
      [
        "è",
        "£"
      ],
      [
        "å±",
        "ŀ"
      ],
      [
        "å·",
        "´"
      ],
      [
        "ä¹",
        "Ĳ"
      ],
      [
        "åĲ",
        "Ħ"
      ],
      [
        "æĶ¿",
        "åºľ"
      ],
      [
        "ç",
        "ĭ"
      ],
      [
        "åĽ½",
        "å®¶"
      ],
      [
        "æĹ¥",
        "æľ¬"
      ],
      [
        "åĵ",
        "ģ"
      ],
      [
        "éĹ",
        "¨"
      ],
      [
        "å±",
        "ķ"
      ],
      [
        "åĮ",
        "ħ"
      ],
      [
        "åı",
        "ĺ"
      ],
      [
        "æ",
        "Ĵ"
      ],
      [
        "çĤ",
        "¹"
      ],
      [
        "åı",
        "į"
      ],
      [
        "å",
        "¨"
      ],
      [
        "å·",
        "²"
      ],
      [
        "æĮ",
        "ĩ"
      ],
      [
        "ç",
        "ĥ"
      ],
      [
        "å¯",
        "¼"
      ],
      [
        "åı°",
        "æ¹¾"
      ],
      [
        "æ",
        "·"
      ],
      [
        "æľ",
        "¯"
      ],
      [
        "éĽ",
        "Ĩ"
      ],
      [
        "èī",
        "²"
      ],
      [
        "èµ",
        "Ħ"
      ],
      [
        "æ²",
        "³"
      ],
      [
        "äº",
        "Ķ"
      ],
      [
        "ç©",
        "º"
      ],
      [
        "æ±",
        "Ł"
      ],
      [
        "çĽ",
        "´"
      ],
      [
        "æī",
        "ĭ"
      ],
      [
        "ç",
        "²"
      ],
      [
        "o",
        "r"
      ],
      [
        "å¤",
        "Ħ"
      ],
      [
        "e",
        "n"
      ],
      [
        "äº",
        "¬"
      ],
      [
        "æĮ",
        "ģ"
      ],
      [
        "å",
        "ķ"
      ],
      [
        "æ±",
        "ī"
      ],
      [
        "å",
        "ĭ"
      ],
      [
        "èĳ",
        "Ĺ"
      ],
      [
        "æ",
        "¢"
      ],
      [
        "çľ",
        "ģ"
      ],
      [
        "ä¿",
        "¡"
      ],
      [
        "ç¥",
        "ŀ"
      ],
      [
        "é",
        "²"
      ],
      [
        "çº",
        "§"
      ],
      [
        "çł",
        "Ķ"
      ],
      [
        "å§",
        "Ķ"
      ],
      [
        "è®",
        "°"
      ],
      [
        "a",
        "r"
      ],
      [
        "æ¸",
        "ħ"
      ],
      [
        "åĳ",
        "½"
      ],
      [
        "åı¯",
        "ä»¥"
      ],
      [
        "åĽ",
        "¢"
      ],
      [
        "ç»",
        "´"
      ],
      [
        "å°",
        "ĳ"
      ],
      [
        "è",
        "Ļ"
      ],
      [
        "ç",
        "Ŀ"
      ],
      [
        "æ",
        "£"
      ],
      [
        "æĽ",
        "´"
      ],
      [
        "ç",
        "¡"
      ],
      [
        "å¼",
        "ł"
      ],
      [
        "è",
        "Į"
      ],
      [
        "a",
        "l"
      ],
      [
        "çī",
        "Ī"
      ],
      [
        "ç®",
        "¡"
      ],
      [
        "è¿",
        "ĺ"
      ],
      [
        "è¯",
        "¥"
      ],
      [
        "æ´",
        "²"
      ],
      [
        "å®",
        "ĺ"
      ],
      [
        "è§",
        "£"
      ],
      [
        "ä½¿",
        "çĶ¨"
      ],
      [
        "åĪ",
        "«"
      ],
      [
        "éĿ",
        "ŀ"
      ],
      [
        "éĢ",
        "ł"
      ],
      [
        "è",
        "Ĵ"
      ],
      [
        "æį",
        "®"
      ],
      [
        "ç±",
        "³"
      ],
      [
        "è",
        "¨"
      ],
      [
        "å",
        "ł"
      ],
      [
        "èĭ",
        "ı"
      ],
      [
        "è¨",
        "Ģ"
      ],
      [
        "éĻ",
        "ħ"
      ],
      [
        "ä»",
        "¶"
      ],
      [
        "19",
        "9"
      ],
      [
        "1",
        "5"
      ],
      [
        "å¸",
        "Ī"
      ],
      [
        "åŀ",
        "ĭ"
      ],
      [
        "èĢ",
        "ĥ"
      ],
      [
        "åĽ",
        "¾"
      ],
      [
        "è",
        "º"
      ],
      [
        "æĽ",
        "¾"
      ],
      [
        "å²",
        "Ľ"
      ],
      [
        "é",
        "ª"
      ],
      [
        "1",
        "6"
      ],
      [
        "åħ",
        "ī"
      ],
      [
        "åĽ",
        "ŀ"
      ],
      [
        "ç©",
        "¶"
      ],
      [
        "éĵ",
        "ģ"
      ],
      [
        "åı",
        "ª"
      ],
      [
        "æ",
        "»"
      ],
      [
        "åķ",
        "Ĩ"
      ],
      [
        "æĪĲ",
        "ä¸º"
      ],
      [
        "å®",
        "Ĺ"
      ],
      [
        "ï¼ī",
        "ãĢĤ"
      ],
      [
        "æĬ",
        "¥"
      ],
      [
        "1",
        "7"
      ],
      [
        "è¿",
        "ŀ"
      ],
      [
        "ç«",
        "Ļ"
      ],
      [
        "æ°",
        "Ķ"
      ],
      [
        "è",
        "Ħ"
      ],
      [
        "äº",
        "ī"
      ],
      [
        "æĿ",
        "¡"
      ],
      [
        "å",
        "Ļ"
      ],
      [
        "ç",
        "Ł³"
      ],
      [
        "Ġ",
        "S"
      ],
      [
        "ç",
        "Į"
      ],
      [
        "æŃ",
        "¦"
      ],
      [
        "åı",
        "ĸ"
      ],
      [
        "a",
        "t"
      ],
      [
        "æĿ",
        "İ"
      ],
      [
        "çłĶ",
        "ç©¶"
      ],
      [
        "èº",
        "«"
      ],
      [
        "åį",
        "³"
      ],
      [
        "ç",
        "Ĺ"
      ],
      [
        "é",
        "¾"
      ],
      [
        "è´",
        "¨"
      ],
      [
        "Ġ",
        "20"
      ],
      [
        "æ¸",
        "¸"
      ],
      [
        "æĶ",
        "¯"
      ],
      [
        "e",
        "s"
      ],
      [
        "è",
        "±"
      ],
      [
        "ç",
        "ĸ"
      ],
      [
        "æĥ",
        "ħ"
      ],
      [
        "ç",
        "Ĭ"
      ],
      [
        "äºº",
        "æ°ĳ"
      ],
      [
        "è§",
        "ģ"
      ],
      [
        "ä¸ĸ",
        "çķĮ"
      ],
      [
        "å®",
        "ĥ"
      ],
      [
        "çļ",
        "ĩ"
      ],
      [
        "åľ°",
        "åĮº"
      ],
      [
        "æµ",
        "İ"
      ],
      [
        "ç",
        "¿"
      ],
      [
        "å¼Ģ",
        "å§ĭ"
      ],
      [
        "ç",
        "ı"
      ],
      [
        "ç¬¬",
        "ä¸Ģ"
      ],
      [
        "æ´",
        "»"
      ],
      [
        "å¤",
        "«"
      ],
      [
        "æ²",
        "¡"
      ],
      [
        "åĳ",
        "¨"
      ],
      [
        "èİ",
        "·"
      ],
      [
        "è¿",
        "ĳ"
      ],
      [
        "ç¤",
        "º"
      ],
      [
        "åį",
        "ķ"
      ],
      [
        "çĻ",
        "½"
      ],
      [
        "èĤ",
        "²"
      ],
      [
        "Ġ",
        "("
      ],
      [
        "ä¸»",
        "è¦ģ"
      ],
      [
        "ä¸",
        "ĵ"
      ],
      [
        "æĶ",
        "¾"
      ],
      [
        "åĻ",
        "¨"
      ],
      [
        "èĬ",
        "Ĥ"
      ],
      [
        "Ġ",
        "C"
      ],
      [
        "èµ",
        "Ľ"
      ],
      [
        "ï¼",
        "į"
      ],
      [
        "åį",
        "¡"
      ],
      [
        "æ´",
        "¾"
      ],
      [
        "éĺ",
        "³"
      ],
      [
        "æŀ",
        "Ħ"
      ],
      [
        "ä¸",
        "¾"
      ],
      [
        "å",
        "ĸ"
      ],
      [
        "æĻ",
        "®"
      ],
      [
        "æ³",
        "¢"
      ],
      [
        "æº",
        "Ĳ"
      ],
      [
        "åĨ",
        "³"
      ],
      [
        "å±",
        "Ģ"
      ],
      [
        "å¤",
        "į"
      ],
      [
        "æŀ",
        "ľ"
      ],
      [
        "Ġ",
        "-"
      ],
      [
        "åħ",
        "Ī"
      ],
      [
        "é¢",
        "ĺ"
      ],
      [
        "åľ",
        "Ł"
      ],
      [
        "åħ¬",
        "åı¸"
      ],
      [
        "é£",
        "İ"
      ],
      [
        "ä»",
        "Ĭ"
      ],
      [
        "åī",
        "§"
      ],
      [
        "åı",
        "Ī"
      ],
      [
        "æĭ",
        "¬"
      ],
      [
        "åĪ",
        "Ĵ"
      ],
      [
        "å¥",
        "¥"
      ],
      [
        "ä¾",
        "ĭ"
      ],
      [
        "è®¤",
        "ä¸º"
      ],
      [
        "è§",
        "Ĥ"
      ],
      [
        "Ġ",
        "ãĢĬ"
      ],
      [
        "è®",
        "¸"
      ],
      [
        "æ",
        "¨"
      ],
      [
        "ç½",
        "ĳ"
      ],
      [
        "åħ",
        "Ń"
      ],
      [
        "1",
        "4"
      ],
      [
        "1",
        "3"
      ],
      [
        "ä¸Ń",
        "åįİ"
      ],
      [
        "æĶ",
        "¶"
      ],
      [
        "å¥",
        "ĸ"
      ],
      [
        "éĻ",
        "Ĩ"
      ],
      [
        "ã",
        "ĥ"
      ],
      [
        "å¸",
        "¦"
      ],
      [
        "æł",
        "ĩ"
      ],
      [
        "i",
        "c"
      ],
      [
        "è¾",
        "ĥ"
      ],
      [
        "è§",
        "Ħ"
      ],
      [
        "ä»¥",
        "åıĬ"
      ],
      [
        "åĮħ",
        "æĭ¬"
      ],
      [
        "åĩ",
        "»"
      ],
      [
        "éĹ",
        "®"
      ],
      [
        "æŃ",
        "Į"
      ],
      [
        "åİĨ",
        "åı²"
      ],
      [
        "åĪ",
        "Ľ"
      ],
      [
        "Ġ",
        "200"
      ],
      [
        "å¼",
        "º"
      ],
      [
        "åĽ",
        "Ń"
      ],
      [
        "æ¬",
        "§"
      ],
      [
        "äºº",
        "åı£"
      ],
      [
        "æĽ",
        "²"
      ],
      [
        "åį",
        "ł"
      ],
      [
        "æ²¡",
        "æľī"
      ],
      [
        "ä¼",
        "Ĭ"
      ],
      [
        "åħ",
        "µ"
      ],
      [
        "h",
        "e"
      ],
      [
        "éĥ¨",
        "åĪĨ"
      ],
      [
        "çŁ",
        "¥"
      ],
      [
        "åİ",
        "»"
      ],
      [
        "è°",
        "ĥ"
      ],
      [
        "åħ¶",
        "ä»ĸ"
      ],
      [
        "åĪ",
        "Ŀ"
      ],
      [
        "è§",
        "Ĵ"
      ],
      [
        "éĻ",
        "¤"
      ],
      [
        "å¾",
        "Ī"
      ],
      [
        "é",
        "Ł"
      ],
      [
        "æł",
        "¹"
      ],
      [
        "çº",
        "³"
      ],
      [
        "æĶ¿",
        "æ²»"
      ],
      [
        "i",
        "s"
      ],
      [
        "æ",
        "ĳ"
      ],
      [
        "ä¸»",
        "ä¹ī"
      ],
      [
        "æŃ",
        "»"
      ],
      [
        "æľ",
        "ª"
      ],
      [
        "æĸĩ",
        "åĮĸ"
      ],
      [
        "åŃ",
        "ĺ"
      ],
      [
        "åħ",
        "«"
      ],
      [
        "Ġ",
        "P"
      ],
      [
        "ç¦",
        "»"
      ],
      [
        "é¾",
        "Ļ"
      ],
      [
        "è½",
        "¬"
      ],
      [
        "Ġ",
        "A"
      ],
      [
        "ä¸",
        "Ķ"
      ],
      [
        "å¤",
        "´"
      ],
      [
        "è¿Ľ",
        "è¡Į"
      ],
      [
        "å¼",
        "ķ"
      ],
      [
        "å®",
        "Į"
      ],
      [
        "çī",
        "ĩ"
      ],
      [
        "Ġ",
        "M"
      ],
      [
        "å",
        "ĥ"
      ],
      [
        "åıĳ",
        "å±ķ"
      ],
      [
        "ç¦",
        "ı"
      ],
      [
        "å¨",
        "ģ"
      ],
      [
        "Ġ",
        "|"
      ],
      [
        "é»",
        "Ħ"
      ],
      [
        "ç¤¾",
        "ä¼ļ"
      ],
      [
        "ä»",
        "¤"
      ],
      [
        "åĨ",
        "į"
      ],
      [
        "19",
        "8"
      ],
      [
        "å±",
        "ħ"
      ],
      [
        "i",
        "t"
      ],
      [
        "å",
        "Ħ"
      ],
      [
        "çĶ",
        "»"
      ],
      [
        "ç»ı",
        "æµİ"
      ],
      [
        "å¢",
        "ŀ"
      ],
      [
        "åħ¶",
        "ä¸Ń"
      ],
      [
        "æĬ",
        "Ģ"
      ],
      [
        "äº",
        "¦"
      ],
      [
        "è",
        "Ĺ"
      ],
      [
        "å®",
        "£"
      ],
      [
        "æİ",
        "¨"
      ],
      [
        "å¾",
        "Ģ"
      ],
      [
        "éķ",
        "ĩ"
      ],
      [
        "çİ",
        "ĩ"
      ],
      [
        "çĻ",
        "¾"
      ],
      [
        "åħ",
        "·"
      ],
      [
        "æĪ",
        "ĳ"
      ],
      [
        "ä¸ĸ",
        "çºª"
      ],
      [
        "æĸ",
        "Ļ"
      ],
      [
        "å¤",
        "®"
      ],
      [
        "èĭ±",
        "åĽ½"
      ],
      [
[...]
